{
  "</s>": 0,
  "<unk>": 1,
  ",": 2,
  ".": 3,
  "\u2581the": 4,
  "\u2581": 5,
  "\u2581and": 6,
  "\u2581to": 7,
  "\u2581of": 8,
  ")": 9,
  "s": 10,
  "\u2581(": 11,
  ":": 12,
  "\u2581in": 13,
  "\u2581a": 14,
  "\u2581you": 15,
  "\u2581is": 16,
  "\u2581that": 17,
  "?": 18,
  "\u2581not": 19,
  "\u2581\u06fd": 20,
  "\u2581for": 21,
  "\u064f": 22,
  "'": 23,
  "\u2581\u201c": 24,
  "\u2581\u0627\u0648\u0631": 25,
  "\u2581be": 26,
  "\u2581they": 27,
  ">>ori<<": 28,
  ">>guj<<": 29,
  ">>sin<<": 30,
  ">>pan_Guru<<": 31,
  ">>mai<<": 32,
  ">>snd_Arab<<": 33,
  ">>ben<<": 34,
  ">>urd<<": 35,
  ">>mar<<": 36,
  ">>hin<<": 37,
  ">>asm<<": 38,
  "\u060c": 39,
  "\u2581will": 40,
  "\u2581\u201d": 41,
  ";": 42,
  "\u2581them": 43,
  "\u2581\u0964": 44,
  "\u0646": 45,
  "\u2581with": 46,
  "\u0650": 47,
  "\u2581\u0627": 48,
  "\u2581%": 49,
  "\u2581it": 50,
  "\u2581I": 51,
  "\u2581are": 52,
  "\u2581have": 53,
  "\u2581-": 54,
  "\u2581who": 55,
  "\u2581God": 56,
  "\u2581\u06a9\u06d2": 57,
  "\u2581\u0622\u06be\u064a": 58,
  "\u2581he": 59,
  "-": 60,
  "\u2581from": 61,
  "\u2581\u06c1\u06d2": 62,
  "\u2581\u06a9\u064a": 63,
  "!": 64,
  "\u2581his": 65,
  "\u2581on": 66,
  "\u2581ai": 67,
  "\u2581\"": 68,
  "\u2581(_": 69,
  ">>rom<<": 70,
  "\u2581And": 71,
  "\u2581_": 72,
  "\u2581their": 73,
  "\u2581\u062c\u0648": 74,
  "\u2581le": 75,
  "\u2581your": 76,
  "\u2581him": 77,
  "\u2581as": 78,
  "\u2581was": 79,
  "\u2581\u0633\u06d2": 80,
  "\u2581\u06a9\u06cc": 81,
  "\u2581\u062a\u0647": 82,
  "\u2581The": 83,
  "\u2581\u0645\u06cc\u06ba": 84,
  "\u2581\u062c\u064a": 85,
  "\u2581we": 86,
  "\u2581Allah": 87,
  "\u2019": 88,
  "\u2581He": 89,
  "\u09cd": 90,
  "\u0964": 91,
  "\u200d": 92,
  "\u2581this": 93,
  "\u2581te": 94,
  "\u2581\u2014": 95,
  "\u2581all": 96,
  "\u2581We": 97,
  "\u2581kai": 98,
  "\u2581by": 99,
  "\u2581\u06a9\u0648": 100,
  "\u2581\u0627\u0644\u0644\u0647": 101,
  "\u2581do": 102,
  "\u2581or": 103,
  "\u2581but": 104,
  "\u2581\u0939\u0948": 105,
  "\u2581those": 106,
  "\u2581when": 107,
  "\u2581\u0915\u0947": 108,
  "\u2581\u0646\u06d2": 109,
  "\u2581what": 110,
  "\u2581\u06a9\u06c1": 111,
  "\u2581[": 112,
  "\u2581has": 113,
  "\u2581\u0627\u0646": 114,
  "\u2581Jesus": 115,
  "\u2581\u0627\u0633": 116,
  "\u2581Jehovah": 117,
  "\u2581\u06c1\u06cc\u06ba": 118,
  "\u2581O": 119,
  "\u064e": 120,
  "\u2581said": 121,
  "\u2581o": 122,
  "\u2581\u0646\u0647": 123,
  "\u2581me": 124,
  "\u2581which": 125,
  "\u2581were": 126,
  "\u2581\u0914\u0930": 127,
  "\u2581one": 128,
  "...": 129,
  "\u2581Lord": 130,
  "\u2581\u062a\u0648": 131,
  "\u2581\u06a9\u0627\u0646": 132,
  "\u2581\u06fe": 133,
  "\u2581so": 134,
  "\u09f0": 135,
  "\u2581\u067e\u0631": 136,
  "\u2581shall": 137,
  "\u2581an": 138,
  "\u2581us": 139,
  "t": 140,
  "\u2581people": 141,
  "\u2581\u0622\u06be\u0646": 142,
  "\u0627": 143,
  "\u2581\u06a9\u0627": 144,
  "/": 145,
  "\u2581had": 146,
  "\u2581\u0a39\u0a48": 147,
  "\u2581can": 148,
  "\u2581\u0648\u06c1": 149,
  "\u2581our": 150,
  "\u0648": 151,
  "\u2581my": 152,
  "\u2581\u0915\u0940": 153,
  "ing": 154,
  "\u2581\u0627\u0648\u06be\u0627\u0646": 155,
  "\u2581\u092e\u0947\u0902": 156,
  "\u2581at": 157,
  "a": 158,
  "\u2581if": 159,
  "]": 160,
  "\u2581no": 161,
  "d": 162,
  ".\"": 163,
  "\u2581\u0938\u0947": 164,
  "\u2581may": 165,
  "\u2581\u062a\u0645": 166,
  "\u2581\u067e\u0648\u0621": 167,
  "e": 168,
  "\u2581\u2019": 169,
  "\u2581there": 170,
  "\u06aa": 171,
  "\u2581\u06c1\u0645": 172,
  "\u0633": 173,
  "\u2581out": 174,
  "\u2581But": 175,
  "\u2581would": 176,
  "\u2581si": 177,
  "\u2581\u0645": 178,
  "\u2581\u0915\u094b": 179,
  "\u2581\u06d4": 180,
  "\u2581\u0a26\u0a47": 181,
  "_": 182,
  "\"": 183,
  "\u2581\u0915\u093e": 184,
  "\u2581folder": 185,
  "\u2581then": 186,
  "\u2581\u0644\u0627\u0621": 187,
  "\u09b0": 188,
  "\u2581\u0a28\u0a42\u0a70": 189,
  "\u0940": 190,
  "\u0924": 191,
  "\u2581\u2018": 192,
  "\u2581\u06a9\u0631": 193,
  "\u2581What": 194,
  "\u2581You": 195,
  "\u2581\u0646\u06c1\u06cc\u06ba": 196,
  "\u2581\u06cc\u06c1": 197,
  "\u2581'": 198,
  "\u2581\u0a26\u0a40": 199,
  "\u2581been": 200,
  "\u09c7\u09b0": 201,
  "\u2581\u0a9b\u0ac7": 202,
  "\u2581\u0906\u0939\u0947": 203,
  "\u2581They": 204,
  "\u2581about": 205,
  "\u2581\u062a\u064a": 206,
  "\u2581unto": 207,
  "\u0b15\u0b41": 208,
  "\u2581up": 209,
  "\u2581did": 210,
  "\u2581\u0924\u094b": 211,
  "\u2581\u0645\u0627\u0646": 212,
  "\u2581good": 213,
  "\u2581\u06a9\u06cc\u0627": 214,
  "\u2581say": 215,
  "\u2581\u0646\u06c1": 216,
  "\u2581\u0627\u0644\u0644\u06c1": 217,
  "\u2581chi": 218,
  "\u2581into": 219,
  "\u2581\u06c1\u0648": 220,
  "\u2581earth": 221,
  "\u2581\u0628\u064a\u0634": 222,
  "\u2581man": 223,
  "\u2581time": 224,
  "\u2581should": 225,
  "\u064a": 226,
  "\u2581'%": 227,
  "\u2581ke": 228,
  "\u0947": 229,
  "\u2581come": 230,
  "\u2581things": 231,
  "\u062c\u064a\u06aa\u064a": 232,
  "\u2581ye": 233,
  "\u2581before": 234,
  "\u2581A": 235,
  "\u2581ka": 236,
  "\u2581know": 237,
  "\u2581\u0906\u0923\u093f": 238,
  "\u2581In": 239,
  "\u2581e": 240,
  "\u0a3e\u0a02": 241,
  "\u2581ande": 242,
  "\u2581\u062c\u0646": 243,
  "\u2581\u0a35\u0a3f\u0a1a": 244,
  "\u2581life": 245,
  "\u0648\u06ba": 246,
  "\u2581day": 247,
  "\u2581\u090f\u0915": 248,
  "\u25811": 249,
  "\u2581made": 250,
  "\u06cc": 251,
  "\u2581It": 252,
  "\u2581only": 253,
  "\u093e": 254,
  "\u2581Bible": 255,
  "\u2581\u0915": 256,
  "\u2581than": 257,
  "\u2581For": 258,
  "m": 259,
  "\u2581also": 260,
  "\u2581This": 261,
  "\u2581\u062c\u0646\u06be\u0646": 262,
  "\u2581\u0915\u093f": 263,
  "\u2581His": 264,
  "\u0928": 265,
  "\u2581sas": 266,
  "\u2581\u0628\u06be\u06cc": 267,
  "\u2581\u092a\u0930": 268,
  ">>san_Deva<<": 269,
  "\u2581some": 270,
  "\u2581message": 271,
  "\u2581\u0633\u0627\u0646": 272,
  "\u2581her": 273,
  "\u0a47": 274,
  "\u2581If": 275,
  "\u2581more": 276,
  "\u09c7": 277,
  "\u06be\u064a": 278,
  "\u2581So": 279,
  "\u2581\u0b15\u0b30\u0b28\u0b4d\u0b24\u0b41": 280,
  "\u0da7": 281,
  "\u2581any": 282,
  "i": 283,
  "\u0aa8\u0ac7": 284,
  "\u2581\u0939\u0948\u0902": 285,
  "\u2581other": 286,
  "\u2581upon": 287,
  "\u2581\u0995\u09f0\u0995": 288,
  "\u2581make": 289,
  "\u2581\u092f\u093e": 290,
  "\u2581file": 291,
  "ed": 292,
  "\u2581How": 293,
  "\u2581\u06af\u06d2": 294,
  "\u061f": 295,
  "\u2581down": 296,
  "\u2581name": 297,
  "\u2581like": 298,
  "):": 299,
  "\u2581\u0627\u067e\u0646\u06d2": 300,
  "\u2581\u0a26\u0a3e": 301,
  "\u2581\u0995\u09f0\u09be": 302,
  "\u2581\u067e\u0627\u0644\u06bb\u06be\u0627\u0631": 303,
  "\u2581way": 304,
  "\u2581Del": 305,
  "\u2581\u0627\u0633\u0627\u0646": 306,
  "\u06be\u0648": 307,
  "\u2581When": 308,
  "\u2581\u0928\u0939\u0940\u0902": 309,
  "\u2581how": 310,
  "\u2581\u0995\u09b0\u09be": 311,
  "\u2581whom": 312,
  "\u2581\u067e\u0646\u06be\u0646\u062c\u064a": 313,
  "\u2581does": 314,
  "\u2581\u0935": 315,
  "Name": 316,
  "\u0915": 317,
  "o": 318,
  "\u2581see": 319,
  "\u2581\u0627\u06cc\u06a9": 320,
  "\u2581these": 321,
  "\u2581\u0a15\u0a3f": 322,
  "\u2581among": 323,
  "\u2581men": 324,
  "\u2581les": 325,
  "S": 326,
  "\u2581believe": 327,
  "\u2581over": 328,
  "\u2581\u062e\u062f\u0627": 329,
  "\u2581Could": 330,
  "\u0932\u093e": 331,
  "\u2581Can": 332,
  "\u09a4": 333,
  "\u2581because": 334,
  "\u2581such": 335,
  "\u2581after": 336,
  "\u0dba": 337,
  "\u2581\u0a28\u0a47": 338,
  "\u2581pe": 339,
  "\u2581even": 340,
  "n": 341,
  "\u2581\u0a05\u0a24\u0a47": 342,
  "\u2581Then": 343,
  "\u2581many": 344,
  "\u0902": 345,
  "\u09ac": 346,
  "\u2581All": 347,
  "\u2581sent": 348,
  "\u2581\u0a32\u0a08": 349,
  "\u094b\u0902": 350,
  "\u0aa8\u0ac0": 351,
  "\u0670": 352,
  "\u2581sar": 353,
  "O": 354,
  "\u2581\u06c1\u06cc": 355,
  "\u2581\u067e\u06be\u0631": 356,
  "\u0b30": 357,
  "\u2581against": 358,
  "\u2581could": 359,
  "\u2581came": 360,
  "\u0995": 361,
  "\u2581\u067e\u064a\u063a\u0645\u0628\u0631": 362,
  "\u2581Him": 363,
  "\u2581\u0928\u0947": 364,
  "ando": 365,
  "\u2581world": 366,
  "\u0d9a\u0dca": 367,
  "\u2581give": 368,
  "\u2581No": 369,
  "\u091a": 370,
  "\u2581help": 371,
  "\u0932": 372,
  "\u2581\u0a38\u0a40": 373,
  "\u2581away": 374,
  "\u2581\"%": 375,
  "\u0928\u0947": 376,
  "I": 377,
  "\u0a40": 378,
  "\u2581\u062a\u0646\u06be\u0646": 379,
  "\u2581Ai": 380,
  "\u2581\u0915\u0930\u0942": 381,
  "\u2581\u091c\u094b": 382,
  "\u0938": 383,
  "\u2581\u098f\u0987": 384,
  "\u2581Do": 385,
  "\u2581\u0633\u0648": 386,
  "\u2581\u06af\u0627": 387,
  "\u2581\u0639\u0630\u0627\u0628": 388,
  "tar": 389,
  "\u2581tume": 390,
  "\u2581love": 391,
  "\u0aae\u0abe\u0a82": 392,
  "\u2581its": 393,
  "\u2581\u0622\u067e": 394,
  "\u2581\u06a9\u064a\u0646": 395,
  "\u2581\u06a9\u0631\u062a\u06d2": 396,
  "\u2581:": 397,
  "\u2581\u062c\u0628": 398,
  "\u2581,": 399,
  "\u2581take": 400,
  "\u2581\u0a09\u0a38": 401,
  "\u2581\u0928\u093e\u0939\u0940": 402,
  "\u2581Christ": 403,
  "\u0648\u0646": 404,
  "\u2581\u062c\u064a\u06aa\u068f\u06be": 405,
  "\u2581\u0928": 406,
  "\u0b30\u0b47": 407,
  "\u2581new": 408,
  "\u0db8": 409,
  "\u2581manush": 410,
  "\u0daf": 411,
  "\u2581two": 412,
  "\u2581\u062c\u0627": 413,
  "\u2581thou": 414,
  "\u2581\u0633\u0646\u062f\u0646": 415,
  "\u0621": 416,
  "A": 417,
  "\u2581iek": 418,
  "\u2581faith": 419,
  "\u2581\u0644\u0626\u06d2": 420,
  "\u2581\u0a28\u0a39\u0a40\u0a02": 421,
  "\u2581nor": 422,
  "\u2581\u0932\u093f\u090f": 423,
  "\u2581\u0b28\u0b3e\u0b39\u0b3f\u0b01": 424,
  "\u2581truth": 425,
  "\u2581she": 426,
  "\u2581\u09a8\u09be": 427,
  "\u2581\u0939\u0940": 428,
  "\u0acb": 429,
  "\u2581\u06aa\u0631\u064a": 430,
  "\u2581\u062c\u0633": 431,
  "\u2581open": 432,
  "\u2581mai": 433,
  "\u2581\u0a28\u0a3e\u0a32": 434,
  "\u2581\u06a9\u0631\u0646\u06d2": 435,
  "\u2581another": 436,
  "\u2581\u06a9\u0648\u0626\u06cc": 437,
  "the": 438,
  "\u2581am": 439,
  "\u2581\u0a07\u0a38": 440,
  "\u2581\u0915\u0930": 441,
  "\u0dc0": 442,
  "\u2581anda": 443,
  "\u0924\u093e": 444,
  "\u2581right": 445,
  "\u2581\u0a24\u0a4b\u0a02": 446,
  "\u2581\u06aa\u064a\u0648": 447,
  "C": 448,
  "\u2581\u0644\u0648\u06af": 449,
  "ly": 450,
  "\u2581\u0637\u0631\u062d": 451,
  "\u2581own": 452,
  "\u0646\u06be\u0646": 453,
  "),": 454,
  "re": 455,
  "\u2581\u0a95\u0ab0\u0acb": 456,
  "\u2581\u0627\u0646\u06be\u0646": 457,
  "\u2581go": 458,
  "\u2581Our": 459,
  "\u2581\u0939\u094b": 460,
  "\u2581Evolution": 461,
  "\u2581\u0939\u0947": 462,
  "\u2581\u0a39\u0a28": 463,
  "\u2581first": 464,
  "\u2581let": 465,
  "\u2581children": 466,
  "\u2581work": 467,
  "\u2581given": 468,
  "\u2581\u0924\u0947": 469,
  "\u0633\u0646\u062f\u0633": 470,
  "\u06c1": 471,
  "\u2581\u0627\u0648\u06be\u064a\u0646": 472,
  "\u0645": 473,
  "\u2581used": 474,
  "\u2581\u09b9\u09ac\u09c7": 475,
  "\u2581That": 476,
  "\u2581As": 477,
  "\u0935\u0930": 478,
  "in": 479,
  "\u0a3e": 480,
  "\u2581being": 481,
  "\u2581\u0648": 482,
  "\u0646\u06d2": 483,
  "\u2581indeed": 484,
  "\u062a": 485,
  "\u200c": 486,
  "\u2581\u0648\u0627\u0644\u0627": 487,
  "\u0987": 488,
  "\u06d2": 489,
  "\u2581/": 490,
  "\u062c\u068f\u06be\u0646": 491,
  "\u2581want": 492,
  "\u2581now": 493,
  "\u2581\u0aae\u0abe\u0a9f\u0ac7": 494,
  "\u0928\u093e": 495,
  "\u2581get": 496,
  "\u2581Day": 497,
  "\u2581\u092d\u0940": 498,
  "\u0930": 499,
  "\u2581every": 500,
  "\u2581\u06aa\u0646\u062f\u0627": 501,
  "\u2581\u0637\u0631\u0641": 502,
  "\u2581\u0935\u0939": 503,
  "\u2581.": 504,
  "\u2581\u0627\u06af\u0631": 505,
  "\u2581\u0642\u0648\u0645": 506,
  "E": 507,
  "\u2581numa": 508,
  "\u2581others": 509,
  "\u2581might": 510,
  "\u091a\u094d\u092f\u093e": 511,
  "\u2581\u0644\u0648\u06af\u0648\u06ba": 512,
  "\u2581\u0a09\u0a39": 513,
  "\u2581phendia": 514,
  "as": 515,
  "\u2581set": 516,
  "\u2581sa": 517,
  "\u2581while": 518,
  "\u0dda": 519,
  "\u2581\u06a9\u0686\u06be": 520,
  "\u2581fear": 521,
  "\u2581page": 522,
  ".\u201d": 523,
  "\u2581great": 524,
  "\u2581Paul": 525,
  "\u2581use": 526,
  "\u2581\u0687\u0627": 527,
  "\u2581\u092e\u0940": 528,
  "\u2581Cannot": 529,
  "\u2581\u0a24\u0a47": 530,
  ").": 531,
  "\u2581find": 532,
  "\u2581\u0db8\u0db8": 533,
  "\u2581close": 534,
  "\u092f\u093e": 535,
  "\u0644": 536,
  "\u0651": 537,
  "\u0dba\u0dd2": 538,
  "\u2581evil": 539,
  "\u2581\u068f\u0627\u0646\u06be\u0646": 540,
  "\u0939\u0940": 541,
  "\u2581found": 542,
  "\u2581\u062a\u06be\u06d2": 543,
  "\u2581most": 544,
  "\u2581through": 545,
  "Other": 546,
  "\u2581\u062a\u0645\u06c1\u0627\u0631\u06d2": 547,
  "\u2581true": 548,
  "\u2581must": 549,
  "\u2581\u0627\u064a": 550,
  "\u2581well": 551,
  "\u2581\u0a07\u0a39": 552,
  "\u2581To": 553,
  "\u2581\u068f\u064a\u0646\u06be\u0646": 554,
  "\u2581back": 555,
  "\u25812": 556,
  "\u2581\u09af\u09c7": 557,
  "\u2581\u09b9": 558,
  "\u2581Organiser": 559,
  "\u2581\u0905\u091b\u093f": 560,
  "\u2581\u0633": 561,
  "\u2581\u0622\u06be\u064a\u0648": 562,
  "\u2581\u062a\u06be\u0627": 563,
  "er": 564,
  "\u2581Say": 565,
  "\u0dad\u0dca": 566,
  "\u2581Why": 567,
  "\u2581thee": 568,
  "\u09a8": 569,
  "\u092e": 570,
  "\u2581\u06c1\u0648\u06ba": 571,
  "c": 572,
  "\u093e\u0924": 573,
  "\u0633\u0648\u0627\u0621": 574,
  "\u2581There": 575,
  "\u2581\u06aa\u0648": 576,
  "\u2581Show": 577,
  "\u2581&": 578,
  "D": 579,
  "\u2581need": 580,
  "?\"": 581,
  "\u2581\u0995\u09b0\u09c1\u09a8": 582,
  "\u2581\u0d92": 583,
  "\u2581years": 584,
  "\u2581surely": 585,
  "u": 586,
  "\u2581death": 587,
  "\u2581\u067f\u064a": 588,
  "\u0995\u09c7": 589,
  "\u2581\u0a95\u0ac7": 590,
  "P": 591,
  "\u2581themselves": 592,
  "\u2581just": 593,
  "\u2581\u0db4\u0dca": 594,
  "\u2581\u0633\u0628": 595,
  "\u0646\u06aa\u064a": 596,
  "\u2581\u0995\u09bf": 597,
  "\u2581leske": 598,
  "\u2581hearts": 599,
  "\u2581\u0995\u09b0\u09c7": 600,
  "\u0627\u064a": 601,
  "\u062c\u064a": 602,
  "y": 603,
  "\u2581\u0627\u06cc\u0645\u0627\u0646": 604,
  "\u2581\u0a8f": 605,
  "\u2581\u0627\u0646\u06c1\u06cc\u06ba": 606,
  "\u2581\u0a2f\u0a39\u0a4b\u0a35\u0a3e\u0a39": 607,
  "\u2581\u092f\u0939": 608,
  "\u2581where": 609,
  "\u2581\u0b2a\u0b3e\u0b07\u0b01": 610,
  "\u2581between": 611,
  "R": 612,
  "\u2581heavens": 613,
  "\u2581\u0a15\u0a30\u0a28": 614,
  "\u2581saying": 615,
  "\u2581son": 616,
  "\u2581\u0a35\u0a40": 617,
  "\u2581\u092f\u0939\u094b\u0935\u093e": 618,
  "\u2581\u0a86": 619,
  "\u2581\u062d": 620,
  "\u0924\u0947": 621,
  "\u0aa8\u0acb": 622,
  "\u2581\u060c": 623,
  "\u0aa8\u0abe": 624,
  "\u2581\u0627\u067e\u0646\u06cc": 625,
  "\u2581\u062f\u06cc\u0627": 626,
  "\u2581\u0644\u06cc\u06d2": 627,
  "\u2581heart": 628,
  "\u2581Israel": 629,
  "\u2581\u0906\u092a\u0932\u094d\u092f\u093e": 630,
  "r": 631,
  "\u2581\u0906\u092a\u0923": 632,
  "\u2581Who": 633,
  "\u2581place": 634,
  "\u2581\u0aa8\u0aa5\u0ac0": 635,
  "\u2581Moses": 636,
  "\u2581C": 637,
  "\u2581hath": 638,
  "\u2581\u0622\u0633\u0645\u0627\u0646": 639,
  "\u2581\u062c\u064a\u06aa\u0648": 640,
  "\u2581\u06aa\u0631\u064a\u0648": 641,
  "\u2581kana": 642,
  "\u2581\u06be\u06aa": 643,
  "\u2581become": 644,
  "\u2581My": 645,
  "\u0935": 646,
  "\u091a\u093e": 647,
  "\u2581\u0905": 648,
  "to": 649,
  "\u2581\u098f\u099f\u09be": 650,
  "\u09b2": 651,
  "\u2581Numa": 652,
  "\u2581\u0986\u09b0": 653,
  "\u2581na": 654,
  "\u2581never": 655,
  "\u2581\u06a9\u06c1\u0627": 656,
  "\u2581lenge": 657,
  "\u2581\u0686\u064a\u0648": 658,
  "\u2581bring": 659,
  "\u2581spirit": 660,
  "\u2581\u0905\u092a\u0928\u0947": 661,
  "\u2581temporary": 662,
  "\u2581files": 663,
  "\u2581except": 664,
  "T": 665,
  "\u2581knowledge": 666,
  "\u2581\u0915\u094d\u092f\u093e": 667,
  "\u2581avel": 668,
  "\u2581says": 669,
  "\u06bb": 670,
  "\u06cc\u06ba": 671,
  "\u2581word": 672,
  "\u0b3e": 673,
  "\u2581\u0645\u0648\u0646": 674,
  "\u2581\u0631\u0628": 675,
  "\u2581each": 676,
  "\u2581\u0939\u092e": 677,
  "\u2581\u099c\u09a8\u09cd\u09af": 678,
  "\u0631": 679,
  "\u2581worship": 680,
  "\u092e\u0947": 681,
  "\u2581\u062a\u0646": 682,
  "\u2581\u06be\u0646": 683,
  "\u06d4": 684,
  "\u2581show": 685,
  "\u2581created": 686,
  "\u2581thy": 687,
  "p": 688,
  "\u2581E": 689,
  "\u2581gave": 690,
  "\u0ac0": 691,
  "\u0627\u0646": 692,
  "\u2581\u0648\u0627\u0644\u06d2": 693,
  "\u2581\u0939\u094b\u0924\u0947": 694,
  "\u2581put": 695,
  "\u0a28": 696,
  "\u2581--": 697,
  "\u2581pala": 698,
  "\u2581\u06a9\u0631\u0648": 699,
  "\u2581mail": 700,
  "\u0932\u0947": 701,
  "\u2581\u062a\u0645\u06c1\u06cc\u06ba": 702,
  "\u2581himself": 703,
  "\u2581\u092a\u0923": 704,
  "l": 705,
  "\u2581cannot": 706,
  "\u2581ones": 707,
  "\u2581words": 708,
  "\u2581hand": 709,
  "\u2581\u067e": 710,
  "\u2581\u0648\u067d": 711,
  "\u2581without": 712,
  "\u2581Book": 713,
  "\u2581land": 714,
  "\u2581\u0993": 715,
  "M": 716,
  "\u2581\u0906": 717,
  "\u2581power": 718,
  "\u2581\u062f\u06d2": 719,
  "\u2581\u0a85\u0aa8\u0ac7": 720,
  "\u2581turn": 721,
  "\u2581same": 722,
  "\u2581\u0938\u0930\u094d\u0935": 723,
  "\u2581\u0b38\u0b28\u0b4d\u0b26\u0b47\u0b36": 724,
  "\u2581\u0924\u0941\u092e": 725,
  "\u0a06\u0a02": 726,
  "\u2581Christians": 727,
  "\u2581error": 728,
  "\u2581went": 729,
  "\u2581Kingdom": 730,
  "\u2581list": 731,
  "F": 732,
  "\u2581\u06be\u0627": 733,
  "\u091a\u0947": 734,
  "\u2581selected": 735,
  "\u2581la": 736,
  "\u2581\u0935\u0947": 737,
  "\u2581window": 738,
  "\u2581much": 739,
  "\u2581family": 740,
  "\u2581called": 741,
  "\u2581\u0d9a\u0dbb\u0db1\u0dca\u0db1": 742,
  "\u2581Christian": 743,
  "\u0942": 744,
  "\u2581\u067e\u0627\u06bb": 745,
  "\u2581\u067f\u0627": 746,
  "\u2581\u0905\u0938\u0947": 747,
  "\u2581\u0a07\u0a15": 748,
  "\u2581leste": 749,
  "\u2581pa": 750,
  "\u2581brought": 751,
  "\u2581Witnesses": 752,
  "\u2581\u0648\u0627\u0631\u0648": 753,
  "\u2581days": 754,
  "\u2581New": 755,
  "\u2581\u0a09\u0a28\u0a4d\u0a39": 756,
  "\u2581ma": 757,
  "\u2581\u0925\u093e": 758,
  "\u2581\u0915\u093f\u092f\u093e": 759,
  "\u2581ask": 760,
  "\u092c": 761,
  "\u2581until": 762,
  "\u2581\u0632\u0645\u064a\u0646": 763,
  "\u2581\u0627\u0633\u06d2": 764,
  "\u2581\u06cc\u0627": 765,
  "\u0b4d": 766,
  "\u2581Those": 767,
  "\u2581\u0924\u094d\u092f\u093e": 768,
  "\u2581\u09aa": 769,
  "\u2581\u067e\u0627\u0633": 770,
  "(": 771,
  "\u2581\u0636\u0631\u0648\u0631": 772,
  "\u2581forth": 773,
  "\u2581example": 774,
  "\u2581\u06aa\u0646\u062f\u0648": 775,
  "\u2581punishment": 776,
  "\u2581again": 777,
  "\u2581image": 778,
  "\u2581\u0628\u06d2": 779,
  "\u2581house": 780,
  "\u2581\u0907\u0938": 781,
  "\u2581\u0995\u09b0\u09a4\u09c7": 782,
  "\u2581\u098f\u09ac\u0982": 783,
  "\u2581S": 784,
  "k": 785,
  "\u2581\u0d94\u0dba\u0dcf": 786,
  "\u2581Indeed": 787,
  "\u2581keep": 788,
  "\u2581\u0a15\u0a40": 789,
  "\u0646\u062f\u0699": 790,
  "\u2581\u0924\u0930": 791,
  "\u2581\u0915\u0930\u0947\u0902": 792,
  "\u093f": 793,
  "\u2581\u0a05\u0a38\u0a40\u0a02": 794,
  "\u2581\u0633\u0627\u062a\u06be": 795,
  "\u2581\u0a09\u0a71\u0a24\u0a47": 796,
  "\u2581\u0628\u0627\u062a": 797,
  "\u2581\u0632\u0645\u06cc\u0646": 798,
  "\u2581left": 799,
  "\u2581\u0db8\u0da7": 800,
  "\u09ae": 801,
  "\u2581\u0628\u0647": 802,
  "\u2581\u0939\u094b\u0924\u093e": 803,
  "\u2581very": 804,
  "\u2581\u064a\u0627": 805,
  "\u2581\u0a06\u0a2a\u0a23\u0a47": 806,
  "\u09b8": 807,
  "\u2581\u0648\u0642\u062a": 808,
  "\u2581\u06aa\u0631\u06bb": 809,
  "\u2581Ke": 810,
  "\u2581Synchronising": 811,
  "\u2581One": 812,
  "N": 813,
  "\u2581part": 814,
  "\u2581avela": 815,
  "\u093f\u0924": 816,
  "\u2581believers": 817,
  "\u0a2e": 818,
  "\u092a": 819,
  "\u2581here": 820,
  "\u2581\u0986\u09ae\u09bf": 821,
  "\u2581end": 822,
  "\u2581heaven": 823,
  "\u2581\u0631\u06c1\u06d2": 824,
  "\u0ac7": 825,
  "\u2581\u0648\u0631\u064a": 826,
  "\u2581father": 827,
  "\u2022": 828,
  "\u2581\u0a2a\u0a30\u0a2e\u0a47\u0a38\u0a3c\u0a41\u0a30": 829,
  "\u0627\u064a\u0645\u0627\u0646": 830,
  "\u099f\u09bf": 831,
  "\u2581\u0928\u0939\u093f": 832,
  "g": 833,
  "\u2581ame": 834,
  "\u2581though": 835,
  "\u2581therefore": 836,
  "\u2581\u0a15\u0a47": 837,
  "\u2581\u0b2b\u0b4b\u0b32\u0b21\u0b30": 838,
  "\u0dbb": 839,
  "\u201c": 840,
  "\u2581Father": 841,
  "\u2581call": 842,
  "\u2581\u062f\u0646": 843,
  "\u2581signs": 844,
  "%": 845,
  "an": 846,
  "\u2581yet": 847,
  "\u2581Error": 848,
  "\u2581save": 849,
  "\u093e\u091a\u094d\u092f\u093e": 850,
  "\u09a4\u09c7": 851,
  "\u2581don": 852,
  "\u2581\u0a39\u0a4b": 853,
  "\u0db1\u0dca": 854,
  "\u2581\u062c\u0627\u0626\u06d2": 855,
  "\u2581follow": 856,
  "B": 857,
  "\u2581send": 858,
  "\u2581Whether": 859,
  "\u0932\u0940": 860,
  "\u2581wo": 861,
  "\u2581Organisation": 862,
  "\u0a95": 863,
  "\u2581\u0928\u093e\u092e": 864,
  "\u2581\u0a2a\u0a30": 865,
  "\u09bf\u09a4": 866,
  "\u2581\u06a9\u0631\u06cc\u06ba": 867,
  "\u2581create": 868,
  "\u2581\u0645\u06be\u0644": 869,
  "\u09aa": 870,
  "\u2581better": 871,
  "\u2581Select": 872,
  "\u0d9a": 873,
  "\u2581\u0a15\u0a30": 874,
  "able": 875,
  "\u0a38": 876,
  "\u2581David": 877,
  "\u2581water": 878,
  "\u2581both": 879,
  "\u094b": 880,
  "\u2581\u09a5\u09c7\u0995\u09c7": 881,
  "\u0aa8": 882,
  "al": 883,
  "\u2581\u09a4\u09be\u09a6\u09c7\u09b0": 884,
  "x": 885,
  "b": 886,
  "\u2581took": 887,
  "v": 888,
  "\u2581\u067f\u0648": 889,
  "\u2581Please": 890,
  "\u09b2\u09c7": 891,
  "\u09af\u09bc": 892,
  "\u2581\u2013": 893,
  "\u2581command": 894,
  "\u2581(%": 895,
  "\u0924\u0940": 896,
  "\u2581\u09a8\u09be\u09ae": 897,
  "\u0939": 898,
  "\u2581cause": 899,
  "\u2581tell": 900,
  "\u2581Your": 901,
  "\u2581Name": 902,
  "\u2581\u0a39\u0a3e\u0a02": 903,
  "\u06cc\u0627": 904,
  "\u2581mercy": 905,
  "\u09c0": 906,
  "\u2581women": 907,
  "\u2581together": 908,
  "\u2581night": 909,
  "th": 910,
  "\u2581\u0627\u06d2": 911,
  "\u2581certainly": 912,
  "\u2581\u0b17\u0b4b\u0b1f\u0b3f\u0b0f": 913,
  "\u2581\u0915\u0930\u0928\u0947": 914,
  "\u2581\u06a9\u0633\u06cc": 915,
  "\u2581\u0628\u06c1\u062a": 916,
  "\u0647": 917,
  "\u2581\u0648\u0627\u0631\u0627": 918,
  "\u0926": 919,
  "\u2581\u0b15\u0b30\u0b3f\u0b2c\u0b3e": 920,
  "\u2581Satan": 921,
  "\u2581\u06c1\u06d2\u06d4": 922,
  "\u2581\u0628": 923,
  "\u091c": 924,
  "\u2581too": 925,
  "\u2581Is": 926,
  "\u2581keren": 927,
  "\u0942\u0928": 928,
  "\u2581vi": 929,
  "\u2581clear": 930,
  "\u2581done": 931,
  "\u0903": 932,
  "\u2581kodo": 933,
  "\u092e\u094d": 934,
  "\u2581read": 935,
  "\u2581\u0915\u093e\u0939\u0940": 936,
  "\u2581\u0d9c\u0dd0\u0db1": 937,
  "\u2581tumenge": 938,
  "\u2581spiritual": 939,
  "\u091a\u0940": 940,
  "\u2581\u0686\u0624": 941,
  "\u2581book": 942,
  "\u2581\u06aa": 943,
  "\u2581under": 944,
  "\u2581On": 945,
  "\u2581think": 946,
  "\u0a40\u0a06\u0a02": 947,
  "\u2581nothing": 948,
  "\u2581\u0db8\u0dda": 949,
  "\u2581\u06c1\u0631": 950,
  "\u2581deeds": 951,
  "\u2581ever": 952,
  "\u2581\u062f": 953,
  "\u2581Move": 954,
  "\u0aa8\u0ac1\u0a82": 955,
  "\u2581means": 956,
  "\u2581brothers": 957,
  "\u0a32": 958,
  "\u2581current": 959,
  "\u2581kodia": 960,
  "\u2581CD": 961,
  "\u2581\u0924\u0941\u092e\u094d\u0939\u0940": 962,
  "\u0626\u064a": 963,
  "\u2581long": 964,
  "\u2581tu": 965,
  "\u2581information": 966,
  "\u2581peace": 967,
  "\u2581saw": 968,
  "\u06aa\u0645": 969,
  "\u2581\u09ac\u09be\u09ac\u09c7": 970,
  "\u0627\u06c1": 971,
  "eth": 972,
  "\u092f": 973,
  "\u2581\u0915\u0941\u091b": 974,
  "\u0628\u0647": 975,
  "or": 976,
  "\u2581\u06aa\u0631": 977,
  "\u0a15": 978,
  "\u2581brother": 979,
  "\u2581nai": 980,
  "\u2581\u0626\u064a": 981,
  "\u2581number": 982,
  "\u2581Open": 983,
  "\u2581Now": 984,
  "\u2581\u06be\u0648": 985,
  "!\"": 986,
  "\u2581\u0aa4\u0ac7": 987,
  "\u2581dead": 988,
  "\u2581three": 989,
  "\u0627\u0644\u0644\u0647": 990,
  "\u2581\u06aa\u0646\u06be\u0646": 991,
  "\u2581\u0a9c": 992,
  "\u2581full": 993,
  "pe": 994,
  "\u2581\u061f": 995,
  "\u25813": 996,
  "\u2581servants": 997,
  "\u2581\u0906\u0939\u0947\u0924": 998,
  "\u0db1": 999,
  "\u2581b": 1000,
  "\u0993": 1001,
  "\u2581congregation": 1002,
  "\u091f": 1003,
  "\u2581disciples": 1004,
  "\u2581Me": 1005,
  "\u2581\u062a\u06a9": 1006,
  "\u2581wrong": 1007,
  "\u2581By": 1008,
  "\u2581neither": 1009,
  "\u2581Kristo": 1010,
  "\u2581already": 1011,
  "\u2581John": 1012,
  "\u0a30": 1013,
  "\u2581\u0628\u064a": 1014,
  "\u2581account": 1015,
  "\u2581\u0628\u06cc\u0634\u06a9": 1016,
  "\u2581able": 1017,
  "\u2581\u0a24\u0a3e\u0a02": 1018,
  "on": 1019,
  "\u2581\u092b\u093f\u0930": 1020,
  "\u2581\u092e\u0932\u093e": 1021,
  "\u2581knows": 1022,
  ")...": 1023,
  "\u2581\u091c\u092c": 1024,
  "\u0646\u0627": 1025,
  "\u2581Jerusalem": 1026,
  "\u2581king": 1027,
  "\u2581best": 1028,
  "\u0dd9\u0db1\u0dca": 1029,
  "\u2581\u0915\u093e\u092f": 1030,
  "\u2581type": 1031,
  "\u2581server": 1032,
  "\u2581person": 1033,
  "\u2581\u0622\u06be\u064a\u0648\u0646": 1034,
  "\u2581righteous": 1035,
  "\u0b17\u0b41\u0b21\u0b3c\u0b3f\u0b15\u0b41": 1036,
  "\u201d": 1037,
  "\u2581times": 1038,
  "\u2581\u06a9\u0631\u062a\u0627": 1039,
  "\u2581sin": 1040,
  "\u2581why": 1041,
  "\u2581\u0d85\u0db4\u0dd2": 1042,
  "\u062a\u06d2": 1043,
  "\u2581wife": 1044,
  "\u2581told": 1045,
  "\u2581\u09b9\u09c8\u099b\u09c7": 1046,
  "\u2581city": 1047,
  "\u2581\u09a4\u09be\u09b0\u09be": 1048,
  "\u064a\u0646": 1049,
  "\u2581\u0aaa\u0ab0": 1050,
  "en": 1051,
  "\u2581\u0924\u0947\u0935\u094d\u0939\u093e": 1052,
  "\u062f": 1053,
  "\u2581parents": 1054,
  "\u2581\u06a9": 1055,
  "\u2581off": 1056,
  "\u2581old": 1057,
  "\u2581speak": 1058,
  "\u2581\u06af\u06cc\u0627": 1059,
  "\u2581data": 1060,
  "\u2581\u062a\u0646\u06be\u0646\u062c\u064a": 1061,
  "\u2581Abraham": 1062,
  "\u2581\u0932\u094b\u0917\u094b\u0902": 1063,
  "\u2581reward": 1064,
  "\u2581\u0986\u09f0\u09c1": 1065,
  "\u2581\u0d92\u0d9a": 1066,
  "\u2581Messenger": 1067,
  "\u2581initialise": 1068,
  "\u2581\u0932\u094b\u0917": 1069,
  "\u2581\u0627\u0633\u064a\u0646": 1070,
  "\u09b8\u09ae\u09c2\u09b9": 1071,
  "\u2581\u0648\u0627\u0644\u0648\u06ba": 1072,
  "\u2581order": 1073,
  "\u2581having": 1074,
  "\u2581\u09ab\u09be\u0987\u09b2": 1075,
  "\u2581\u0924\u094d\u092f\u093e\u0902\u0928\u093e": 1076,
  "\u2581heard": 1077,
  "\u2581\u06be\u0648\u0627": 1078,
  "\u2581value": 1079,
  "\u2581\u0939\u093e": 1080,
  "\u2581\u0686\u0648\u0646\u062f\u0627": 1081,
  "\u2581D": 1082,
  "\u2581\u0995\u09cb\u09a8\u09cb": 1083,
  "\u2581\u092b\u093e\u0907\u0932": 1084,
  "\u2581\u0932\u094b\u0915": 1085,
  "\u2581\u091c\u0947": 1086,
  "L": 1087,
  "\u2581\u0915\u0930\u0924\u0947": 1088,
  "\u2581revealed": 1089,
  "\u2581eyes": 1090,
  "st": 1091,
  "\u0aa5\u0ac0": 1092,
  "of": 1093,
  "\u2581\u062f\u0648": 1094,
  "\u0dc3\u0dca": 1095,
  "\u0921": 1096,
  "\u2581\u092e\u0948\u0902": 1097,
  "\u2581\u06c1\u0648\u0626\u06d2": 1098,
  "\u2581\u0b15\u0b3f": 1099,
  "\u2581ek": 1100,
  "\u2581\u0985": 1101,
  "\u2581hands": 1102,
  "\u2581\u09a8\u09a4\u09c1\u09a8": 1103,
  "\u0936": 1104,
  "\u2581Let": 1105,
  "\u2581\u06aa\u0646\u062f\u0699": 1106,
  "\u0b28": 1107,
  "\u2581File": 1108,
  "\u093e\u0928\u0947": 1109,
  "\u2581\u0b0f\u0b39\u0b3f": 1110,
  "\u0dbd": 1111,
  "\u062a\u0648\u06a9\u064a": 1112,
  "\u2581\u06aa\u0626\u064a": 1113,
  "\u2581won": 1114,
  "\u2581\u062f\u06cc": 1115,
  "\u2581\u0909\u0938": 1116,
  "\u2581\u0644\u06d2": 1117,
  "\u2581\u09b9\u09af\u09bc": 1118,
  "\u2581\u06aa\u0627": 1119,
  "\u2581messages": 1120,
  "\u2581\u0924\u094d\u092f\u093e\u091a\u094d\u092f\u093e": 1121,
  "\u2581human": 1122,
  "\u2581return": 1123,
  "\u2581mankind": 1124,
  "\u2581last": 1125,
  "\u2581\u0915\u094b\u0908": 1126,
  "\u2581\u098f\u0995\u099f\u09bf": 1127,
  "\u2581\u0633\u064a": 1128,
  "\u2581\u0906\u092a": 1129,
  "\u2581became": 1130,
  "es": 1131,
  "We": 1132,
  "\u2581little": 1133,
  "\u2581today": 1134,
  "\u2581Word": 1135,
  "\u2581\u0a39\u0a40": 1136,
  "\u2581\u09a4\u09a5\u09cd\u09af": 1137,
  "The": 1138,
  "\u2581Peter": 1139,
  "\u2581\u06c1\u0645\u0627\u0631\u06d2": 1140,
  "\u2581angels": 1141,
  "\u2581\u0915\u093e\u0930\u0923": 1142,
  "\u2581text": 1143,
  "\u2581\u0aa8\u0ac7": 1144,
  "\u2581home": 1145,
  "\u2581light": 1146,
  "\u2581live": 1147,
  "\u2581apostle": 1148,
  "\u2581\u0627\u0633\u06cc": 1149,
  "\u2581\u06aa\u0645": 1150,
  "\u0915\u0930": 1151,
  "\u2581Most": 1152,
  "\u2581sure": 1153,
  "\u2581duma": 1154,
  "\u2581kadia": 1155,
  "\u2581hear": 1156,
  "\u2581\u067e\u06c1\u0644\u06d2": 1157,
  "\u2581news": 1158,
  "\u0923": 1159,
  "\u2581Failed": 1160,
  "\u2581thing": 1161,
  "\u2581\u06a9\u0627\u0645": 1162,
  "\u2581\u062d\u0642": 1163,
  "\u2581\u0924\u094d\u092f\u093e\u0932\u093e": 1164,
  "\u2581\u0648\u064a\u0648": 1165,
  "\u2581view": 1166,
  "f": 1167,
  "\u2581prayer": 1168,
  "\u2581\u0645\u062f\u062f": 1169,
  "\u2581Devlesko": 1170,
  "\u2581seek": 1171,
  "\u2581\u0938\u093e\u0925": 1172,
  "\u2581Son": 1173,
  "\u0ab0": 1174,
  "\u2581\u0a15\u0a40\u0a24\u0a3e": 1175,
  "\u258115": 1176,
  "\u2581key": 1177,
  "\u2581whose": 1178,
  "\u064c": 1179,
  "\u09a4\u09be": 1180,
  "\u2581\u0a1c\u0a4b": 1181,
  "\u2581law": 1182,
  "\u2581kodola": 1183,
  "\u2581Save": 1184,
  "\u2581\u0924\u0942": 1185,
  "\u2581faithful": 1186,
  "\u093e\u0932\u093e": 1187,
  "\u2581failed": 1188,
  "\u2581de": 1189,
  "\u2581\u0627\u06b3": 1190,
  "\u2581\u067e\u0631\u0648\u0631\u062f\u06af\u0627\u0631": 1191,
  "\u2581hope": 1192,
  "\u09be": 1193,
  "\u093e\u091a\u093e": 1194,
  "\u2581\u06a9\u064a\u0633": 1195,
  "\u2581fire": 1196,
  "\u2581\u0627\u0646\u062c\u0627\u0645": 1197,
  "\u2581\u0915\u093e\u092e": 1198,
  "\u2581\u201c%": 1199,
  "Comment": 1200,
  "\u2581po": 1201,
  "\u2581doing": 1202,
  "\u09bf": 1203,
  "\u2581\u0995\u09f0\u09bf\u09ac": 1204,
  "\u2581X": 1205,
  "\u2581Un": 1206,
  "\u0648\u0631": 1207,
  "2": 1208,
  "\u2581\u0a1c\u0a3e": 1209,
  "\u093e\u091a\u0947": 1210,
  "\u2581\u0d9a\u0dd2\u0dba\u0dbd\u0dcf": 1211,
  "U": 1212,
  "\u2581\u0917\u092f\u093e": 1213,
  "\u2581\u0909\u0938\u0915\u0947": 1214,
  "\u2581\u0915\u0947\u0932\u0947": 1215,
  "\u2581still": 1216,
  "\u2581component": 1217,
  "\u2581\u0631\u0633\u0648\u0644": 1218,
  "\u0a82": 1219,
  "\u0935\u093e": 1220,
  "\u2581leave": 1221,
  "\u2581\u0995": 1222,
  "\u2581\u0924\u094d\u092f\u093e\u0928\u0947": 1223,
  "(_": 1224,
  "\u067e\u0646\u06be\u0646\u062c\u0646": 1225,
  "\u2581Not": 1226,
  "\u2581receive": 1227,
  "\u2581\u06a9\u0631\u06d2": 1228,
  "\u062c\u0648": 1229,
  "\u2581\u0d9a\u0dca": 1230,
  "\u2581eat": 1231,
  "\u2581face": 1232,
  "\u2581trobul": 1233,
  "\u0aae": 1234,
  "\u0dc0\u0dcf": 1235,
  "\u2581lesko": 1236,
  "\u2581Add": 1237,
  "\u0940\u0932": 1238,
  "\u06a9": 1239,
  "\u2581\u06aa\u062a\u0627\u0628": 1240,
  "\u06be\u0627": 1241,
  "\u2581\u0938\u0902\u0926\u0947\u0936": 1242,
  "\u0d9c\u0dda": 1243,
  "\u2581Are": 1244,
  "\u2581\u092f\u0947": 1245,
  "\u2581\u09af": 1246,
  "\u2581verily": 1247,
  "\u0dca": 1248,
  "\u0dcf": 1249,
  "\u2581young": 1250,
  "\u2581\u0b2b\u0b3e\u0b07\u0b32": 1251,
  "\u2581dies": 1252,
  "\u2581\u0a24\u0a41\u0a38\u0a40\u0a02": 1253,
  "\u0930\u093e": 1254,
  "\u0ab2": 1255,
  "\u2581child": 1256,
  "\u2581mother": 1257,
  "\u2581\u0639\u0628\u0627\u062f\u062a": 1258,
  "\u2581\u0a95\u0ab0\u0ac0": 1259,
  "\u2581\u092a\u0930\u092e\u0947\u0936\u094d": 1260,
  "\u2581soul": 1261,
  "\u2581\u062a\u0648\u0646": 1262,
  "\u2581\u0935\u093f\u0936\u094d": 1263,
  "\u25815": 1264,
  "\u2581\u06af\u06be\u0631": 1265,
  "\u0b3f": 1266,
  "\u2581Some": 1267,
  "\u2581game": 1268,
  "\u2581\u0645\u06af\u0631": 1269,
  "\u2581something": 1270,
  "\u2581\u06c1\u0648\u0627": 1271,
  "\u2581\u09b8\u09ae\u09af\u09bc": 1272,
  "\u2581\u0628\u0639\u062f": 1273,
  "\u2581asked": 1274,
  "\u2581\u091c\u093e": 1275,
  "\u2581therein": 1276,
  "\u2581works": 1277,
  "\u2581These": 1278,
  "\u2581system": 1279,
  "\u0915\u0947\u0901": 1280,
  "\u2581\u06aa\u0646": 1281,
  "\u0a24": 1282,
  "\u2581\u0915\u0930\u093e": 1283,
  "\u2581guidance": 1284,
  "\u2581\u0939\u094b\u0924\u0940": 1285,
  "\u0b41": 1286,
  "H": 1287,
  "\u2581\u09ac\u09cd\u09af\u09f0\u09cd\u09a5": 1288,
  "\u2581feel": 1289,
  "\u2581disc": 1290,
  "\u2581\u0622\u0621": 1291,
  "\u2581understand": 1292,
  "\u2581next": 1293,
  "\u2581\u0638\u0627\u0644\u0645": 1294,
  "\u2581\u0645\u06cc\u0631\u06d2": 1295,
  "\u2581\u06cc\u06c1\u0648\u0648": 1296,
  "\u2581enter": 1297,
  "\u2581\u0a2f\u0a3f\u0a38\u0a42": 1298,
  "\u2581going": 1299,
  "\u2581holy": 1300,
  "\u2581\u0648\u0627\u067d": 1301,
  "\u2581comes": 1302,
  "\u2581near": 1303,
  "\u2581Verily": 1304,
  "\u2581witness": 1305,
  "\u2581\u098f": 1306,
  "\u0639": 1307,
  "\u2581woman": 1308,
  "\u094d\u092f": 1309,
  "\u2581She": 1310,
  "\u2581\u0a15\u0a30\u0a4b": 1311,
  "\u2581\u0986\u09b2": 1312,
  "\u2581\u09a4\u09be": 1313,
  "\u2581\u0634\u06a9": 1314,
  "\u2581Surely": 1315,
  "\u2581\u0627\u0646\u06c1\u0648\u06ba": 1316,
  "\u2581tumende": 1317,
  "\u2581\u0a28\u0a3e": 1318,
  "\u2581free": 1319,
  "\u2581\u0925\u0947": 1320,
  "\u0aa4\u0abe": 1321,
  "\u2581\u098f\u0995": 1322,
  "\u2581Yes": 1323,
  "\u2581yourselves": 1324,
  "\u2581seen": 1325,
  "\u2581\u09a4": 1326,
  "\u093f\u092f\u094b\u0902": 1327,
  "\u2581\u0628\u062e\u0634": 1328,
  "\u2581Kana": 1329,
  "\u2581year": 1330,
  "\u2581aven": 1331,
  "\u0628": 1332,
  "\u2581\u0a38\u0a3e\u0a28\u0a42\u0a70": 1333,
  "\u2581\u0645\u0627\u06bb\u06be\u0646": 1334,
  "\u2581Devleski": 1335,
  "\u0b15": 1336,
  "\u2581\u062f\u0644": 1337,
  "\u2581look": 1338,
  "\u2581Picture": 1339,
  "\u2581\u062e\u0628\u0631": 1340,
  "\u2581address": 1341,
  "\u2581B": 1342,
  "\u0b40": 1343,
  "\u2581mind": 1344,
  "le": 1345,
  "ll": 1346,
  "\u2581\u09af\u09be": 1347,
  "\u2581\u067e\u06cc\u062f\u0627": 1348,
  "\u2581service": 1349,
  "\u2581\u0642\u0633\u0645": 1350,
  "\u2581\u0a05": 1351,
  "\u2581whether": 1352,
  "\u2581View": 1353,
  "\u2581path": 1354,
  "\u0dba\u0d9a\u0dca": 1355,
  "\u0db8\u0dca": 1356,
  "\u258119": 1357,
  "\u2581\u0646\u0627\u0632\u0644": 1358,
  "\u2581received": 1359,
  "\u0a3f\u0a06\u0a02": 1360,
  "\u2581\u09f0": 1361,
  "\u2581\u0a38\u0a28": 1362,
  "\u2581\u0915\u0930\u0924\u093e": 1363,
  "\u2581\u0db1\u0dd1": 1364,
  "\u2581known": 1365,
  "@": 1366,
  "\u2581\u06c1\u0645\u06cc\u06ba": 1367,
  "\u2581Or": 1368,
  "\u2581according": 1369,
  "\u2581serve": 1370,
  "\u2581\u09b9\u09af\u09bc\u09c7\u099b\u09c7": 1371,
  "\u0a23": 1372,
  "w": 1373,
  "\u0a3f\u0a06": 1374,
  "\u0624": 1375,
  "\u2581\u0a2c\u0a3e\u0a30\u0a47": 1376,
  "\u2581support": 1377,
  "\u2581\u0938\u092c": 1378,
  "\u2581turned": 1379,
  "\u2581\u09ac\u09be": 1380,
  "\u2581living": 1381,
  "\u2581\u0634\u062e\u0635": 1382,
  "\u2581none": 1383,
  "\u0634": 1384,
  "\u25814": 1385,
  "\u2581\u09aa\u09f0\u09be": 1386,
  "\u2581display": 1387,
  "\u2581del": 1388,
  "\u2581line": 1389,
  "\u2581\u0915\u0939\u093e": 1390,
  "\u2581~": 1391,
  "\u2581Jews": 1392,
  "\u2581\u062c\u0627\u0626\u06cc\u06ba": 1393,
  "\u2581password": 1394,
  "\u0ab8": 1395,
  "\u2581\u0909\u0928\u0915\u0947": 1396,
  "\u0632": 1397,
  "\u2581dieli": 1398,
  "\u0dd9": 1399,
  "\u2581Thus": 1400,
  "\u2581Use": 1401,
  "\u2581move": 1402,
  "\u2581believed": 1403,
  "\u2581whatever": 1404,
  "\u2581\u0987": 1405,
  "\u2581taken": 1406,
  "\u2581promise": 1407,
  "\u2581\u09ae\u09be\u09a8": 1408,
  "\u2581\u0684\u0627\u06bb\u0646\u062f\u0699": 1409,
  "\u0a4b": 1410,
  "\u062a\u0627": 1411,
  "vai": 1412,
  "\u2581\u0924\u0940": 1413,
  "\u2581\u0648\u0647": 1414,
  "\u067d": 1415,
  "\u2581course": 1416,
  "\u2581sai": 1417,
  "\u2581following": 1418,
  "\u2581\u09a8\u09b9\u09af\u09bc": 1419,
  "\u2581\u09a4\u09be\u09b0": 1420,
  "\u09a8\u09be": 1421,
  "\u2581\u0995\u09b0\u09be\u09b0": 1422,
  "\u2581\u0d94\u0dc4\u0dd4": 1423,
  "\u2581\u062c\u0627\u0646": 1424,
  "\u09a6": 1425,
  "\u25813:": 1426,
  "\u2581\u0a2c\u0a3e\u0a08\u0a2c\u0a32": 1427,
  "\u2581sons": 1428,
  "\u2581\u0648\u0627\u0631\u0646": 1429,
  "\u0928\u0940": 1430,
  "\u2581\u0d91\u0d9a": 1431,
  "\u2581\u0645\u0646\u06be\u0646\u062c\u064a": 1432,
  "\u2581*": 1433,
  "\u2581glory": 1434,
  "\u2581\u06be": 1435,
  "\u2581zakono": 1436,
  "\u2581desire": 1437,
  "\u2581\u0633\u062e\u062a": 1438,
  "\u2581\u0909\u0928": 1439,
  "\u2581\u062a\u0645\u0627\u0645": 1440,
  "\u2581\u0686\u06cc\u0632": 1441,
  "\u2581!": 1442,
  "\u2581\u0a38\u0a15\u0a26\u0a47": 1443,
  "\u062d": 1444,
  "\u2581However": 1445,
  "\u2581Yet": 1446,
  "\u2581With": 1447,
  "\u2581\u0906\u092a\u0932\u094d\u092f\u093e\u0932\u093e": 1448,
  "\u2581\u0622\u062e\u0631\u062a": 1449,
  "\u2581study": 1450,
  "\u2581body": 1451,
  "\u2581angla": 1452,
  "\u2581baro": 1453,
  "\u2581\u062a\u0646\u06be\u0646\u06aa\u0631\u064a": 1454,
  "\u09cd\u09af": 1455,
  "\u2581\u0627\u06be\u0699\u064a": 1456,
  "\u2581\u09ac\u09be\u09f0\u09cd\u09a4\u09be": 1457,
  "\u2581toward": 1458,
  "\u2581\u062a\u0627\u06a9\u06c1": 1459,
  "\u2581san": 1460,
  "\u2581during": 1461,
  "5": 1462,
  "\u2581\u067e\u0633": 1463,
  "\u2581murho": 1464,
  "\u2581\u0645\u062c\u06be\u06d2": 1465,
  "\u2581sins": 1466,
  "\u2581certain": 1467,
  "\u0642": 1468,
  "\u2581\u0967": 1469,
  "\u2581remember": 1470,
  "\u2581\u062d\u06a9\u0645": 1471,
  "\u2581learn": 1472,
  "\u2581document": 1473,
  "\u2581\u0aaa\u0aa3": 1474,
  "\u2581matter": 1475,
  "\u2581sign": 1476,
  "\u2581After": 1477,
  "\u2581\u0916": 1478,
  "\u0aaa": 1479,
  "\u2581\u06be\u062c\u064a": 1480,
  "\u09a3": 1481,
  "\u0dbd\u0dca": 1482,
  "\u093e\u091a\u0940": 1483,
  "\u2581buchi": 1484,
  "\u2581\u06a9\u062a\u0627\u0628": 1485,
  "\u2581?": 1486,
  "ar": 1487,
  "\u2581\u0631": 1488,
  "\u2581\u0926\u093f\u092f\u093e": 1489,
  "\u2581Us": 1490,
  "\u0631\u06b3\u0648": 1491,
  "\u2581\u062f\u0648\u0632\u062e": 1492,
  "\u2581At": 1493,
  "\u09cb": 1494,
  "\u2581DVD": 1495,
  "\u0b47": 1496,
  "\u090f": 1497,
  "\u0935\u093e\u0938": 1498,
  "3": 1499,
  "\u2581blood": 1500,
  "\u0917": 1501,
  "\u2581\u092e\u094d\u0939\u0923\u0942\u0928": 1502,
  "\u2581mode": 1503,
  "\u2581religion": 1504,
  "\u09a8\u09bf": 1505,
  "\u2581\u0648\u06c1\u06cc": 1506,
  "\u2581\u0986\u099b\u09c7": 1507,
  "\u2581wrote": 1508,
  "\u2581dia": 1509,
  "\u09a6\u09c7\u09b0": 1510,
  "\u09b0\u09be": 1511,
  "\u2581\u062a\u06be\u06cc": 1512,
  "\u0936\u0940": 1513,
  "\u2581\u0ab6\u0ac1\u0a82": 1514,
  "\u2581\u0db1\u0dd0\u0dc4\u0dd0": 1515,
  "\u2581above": 1516,
  "\u2581Remove": 1517,
  "\u2581Therefore": 1518,
  "it": 1519,
  "\u2581\u067b": 1520,
  "\u2581\u0634\u064a\u0621": 1521,
  "\u2581anything": 1522,
  "\u0db4": 1523,
  "\u2581ways": 1524,
  "\u25817": 1525,
  "\u2581<": 1526,
  "\u2581%1": 1527,
  "\u064a\u0621": 1528,
  "\u2581always": 1529,
  "\u2581\u0a17\u0a3f\u0a06": 1530,
  "\u2581Create": 1531,
  "\u2581\u0a2e\u0a48\u0a02": 1532,
  "\u2581\u0a38": 1533,
  "\u2581began": 1534,
  "\u2581available": 1535,
  "\u2581Have": 1536,
  "\u258110": 1537,
  "\u2581\u09aa\u09cd\u09b0\u09a6\u09b0\u09cd\u09b6\u09a8": 1538,
  "\u2581America": 1539,
  "\u2581\u0631\u0627\u062a": 1540,
  "\u2581around": 1541,
  "\u2581seven": 1542,
  "\u2581\u0986\u09ae\u09b0\u09be": 1543,
  "\u2581Le": 1544,
  "\u2581\u063a\u0627\u0644\u0628": 1545,
  "\u2581change": 1546,
  "ra": 1547,
  "\u2581\u092e\u0917": 1548,
  "\u2581\u0622": 1549,
  "\u2581\u09ae\u09a7\u09cd\u09af\u09c7": 1550,
  "\u2581\u0687\u0648\u062a\u0647": 1551,
  "\u2581\u0905\u092a\u0928\u0940": 1552,
  "\u09c7\u09f0": 1553,
  "\u2581kerel": 1554,
  "\u0627\u0631": 1555,
  "\u2581really": 1556,
  "\u2581wisdom": 1557,
  "\u2581\u0909\u0938\u0947": 1558,
  "\u2581\u09b8": 1559,
  "\u2581\u0926\u0947\u0935": 1560,
  "\u2581\u0645\u0627\u0644": 1561,
  "\u2581\u0a17\u0a71\u0a32": 1562,
  "\u2581action": 1563,
  "V": 1564,
  "\u2581far": 1565,
  "\u25812:": 1566,
  "\u2581\u0628\u0627\u0628\u062a": 1567,
  "\u2581\u0985\u09a5\u09ac\u09be": 1568,
  "\u0641": 1569,
  "\u25816": 1570,
  "\u0924\u093f": 1571,
  "\u2581later": 1572,
  "\u2581Folder": 1573,
  "\u2581\u0915\u0947\u0932\u0940": 1574,
  "\u2581lende": 1575,
  "\u2581\u0905\u0932\u094d\u0932\u093e\u0939": 1576,
  "\u067e": 1577,
  "\u09bf\u0995": 1578,
  "\u2581Go": 1579,
  "\u2581die": 1580,
  "\u2581\u062a": 1581,
  "\u2581\u0ab9\u0acb\u0aaf": 1582,
  "av": 1583,
  "\u2581\u067f\u064a\u0648": 1584,
  "\u2581\u0915\u093e\u0930\u094d\u092f": 1585,
  "\u2581\u0aa4\u0aae\u0ac7": 1586,
  "\u2581everything": 1587,
  "\u2581\u0930\u0939\u093e": 1588,
  "\u2581\u0687\u0648": 1589,
  "\u0a93": 1590,
  "\u2581\u09b8\u09c7": 1591,
  ">": 1592,
  "ve": 1593,
  "\u2581\u092b\u093c\u093e\u0907\u0932": 1594,
  "\u2581\u0d85": 1595,
  "\u2581Fire": 1596,
  "\u2581peske": 1597,
  "\u2581trust": 1598,
  "\u2581\u06af\u06cc": 1599,
  "\u2581\u09a8\u09af\u09bc": 1600,
  "\u2581contact": 1601,
  "\u2581\u06b3\u0627\u0644\u06be": 1602,
  "\u2581empty": 1603,
  "\u2581\u0a35\u0a3f\u0a71\u0a1a": 1604,
  "\u2581present": 1605,
  "\u2581\u062c\u0648\u0646": 1606,
  "\u2581\u0642\u0631\u0622\u0646": 1607,
  "\u2581four": 1608,
  "\u2581...": 1609,
  "\u0b24": 1610,
  "\u2581\u0b15\u0b41": 1611,
  "\u2581\u0938": 1612,
  "\u2581high": 1613,
  "\u2581\u067b\u0626\u064a": 1614,
  "\u2581\u0916\u093c\u0941\u0926\u093e": 1615,
  "\u2581\u0924\u0915": 1616,
  "\u2581appointed": 1617,
  "\u2581size": 1618,
  "\u2581fact": 1619,
  "h": 1620,
  "\u2581reason": 1621,
  "\u2581bi": 1622,
  "\u2581\u0d87\u0dad\u0dd2": 1623,
  "\u2581concerning": 1624,
  "\u2581\u0938\u0901": 1625,
  "\u2581\u0ab0\u0ab9\u0acd\u0aaf\u0abe": 1626,
  "\u2581\u0aa8\u0ab9\u0abf\u0a82": 1627,
  "\u0930\u0940": 1628,
  "\u2581\u0633\u0632\u0627": 1629,
  "\u2581archive": 1630,
  "\u2581food": 1631,
  "\u2581An": 1632,
  "\u2581important": 1633,
  "\u2581\u0a06\u0a2a\u0a23\u0a40": 1634,
  "\u2581\u0628\u0691\u0627": 1635,
  "\u09b9": 1636,
  "\u0915\u093e": 1637,
  "\u2581Image": 1638,
  "\u2581\u06aa\u064a": 1639,
  "\u2581using": 1640,
  "\u2581pachamos": 1641,
  "\u2581\u09ab\u09cb\u09b2\u09cd\u09a1\u09be\u09f0": 1642,
  "\u0dbd\u0dcf": 1643,
  "el": 1644,
  "sa": 1645,
  "\u2581Even": 1646,
  "\u2581consider": 1647,
  "\u2581deny": 1648,
  "\u2581\u0938\u092e\u092f": 1649,
  "\u2581\u09a4\u09bf\u09a8\u09bf": 1650,
  "\u2581\u090f\u0915\u091f\u093e": 1651,
  "\u25818": 1652,
  "\u2581\u092e\u093e\u091d\u094d\u092f\u093e": 1653,
  "\u06c1\u0645\u0627\u0631\u06cc": 1654,
  "de": 1655,
  "\u2581whoever": 1656,
  "\u0635": 1657,
  "\u2581coming": 1658,
  "\u2581knew": 1659,
  "\u2581making": 1660,
  "\u2581righteousness": 1661,
  "\u2581\u0a15\u0a41\u0a1d": 1662,
  "\u2581torment": 1663,
  "\u0b2e": 1664,
  "\u2581\u092c\u093e\u0924": 1665,
  "ro": 1666,
  "\u2581different": 1667,
  "\u2581sea": 1668,
  "\u0dc3": 1669,
  "\u2581P": 1670,
  "\u2581answered": 1671,
  "\u2581\u0a24\u0a30\u0a4d\u0a39\u0a3e\u0a02": 1672,
  "\u2581From": 1673,
  "\u2581vorta": 1674,
  "\u2581\u0ab8\u0abe\u0aa5\u0ac7": 1675,
  "\u2581\u0a15\u0a30\u0a26\u0a47": 1676,
  "\u258112": 1677,
  "\u2581G": 1678,
  "\u2581\u09a8\u09c7": 1679,
  "\u2581behind": 1680,
  "\u0b3f\u0b24": 1681,
  "\u2581\u0917\u094b\u0937\u094d\u091f\u0940": 1682,
  "\u0947\u0902": 1683,
  "\u2581\u06aa\u064a\u0648\u0633\u0648\u0646": 1684,
  "\u09b6": 1685,
  "\u2581often": 1686,
  "\u2581\u09ac": 1687,
  "\u2581few": 1688,
  "You": 1689,
  "\u2581Set": 1690,
  "\u2581narodo": 1691,
  "\u0a2a": 1692,
  "\u2581List": 1693,
  "\u2581\u09ac\u09cd\u09af\u09f1\u09b9\u09be\u09f0": 1694,
  "\u2581astray": 1695,
  "\u2581saved": 1696,
  "\u2581\u0638\u0644\u0645": 1697,
  "\u2581\u06af\u0626\u06d2": 1698,
  "\u25814:": 1699,
  "\u2581mande": 1700,
  "us": 1701,
  "\u2581\u0924\u0941\u092e\u094d\u0939\u093e\u0932\u093e": 1702,
  "\u2581\u0986\u09ae\u09be\u09b0": 1703,
  "\u2581anyone": 1704,
  "\u2581\u0935\u093f\u091a\u093e\u0930": 1705,
  "\u2581\u0a95\u0ab0\u0ab5\u0abe": 1706,
  "\u2581flesh": 1707,
  "\u2581\u0644": 1708,
  "\u2581\u090f\u0915\u093e": 1709,
  "\u2581\u0639\u0644\u0645": 1710,
  "\u2581written": 1711,
  "\u2581\u06a9\u0631\u0646\u0627": 1712,
  "\u0645\u067f\u0646": 1713,
  "\u0916": 1714,
  "\u06be": 1715,
  "\u064b": 1716,
  "\u25811:": 1717,
  "\u2581\u0b38\u0b2e\u0b4d\u0b2a\u0b30\u0b4d\u0b15": 1718,
  "ia": 1719,
  "\u0abe": 1720,
  "\u2581nation": 1721,
  "\u2581\u0a15\u0a40\u0a24\u0a40": 1722,
  "\u2581Lo": 1723,
  "\u2581\u0b28\u0b42\u0b24\u0b28": 1724,
  "\u2581\u0a2c\u0a39\u0a41\u0a24": 1725,
  "\u2581F": 1726,
  "\u2581bear": 1727,
  "\u2581\u0915\u093f\u0902\u0935\u093e": 1728,
  "\u0932\u094d\u092f\u093e": 1729,
  "\u0ab5\u0abe": 1730,
  "\u099f": 1731,
  "\u0dba\u0dcf": 1732,
  "\u2581\u0628\u0646\u0627": 1733,
  "li": 1734,
  "\u2581disbelieve": 1735,
  "\u2581\u0aa8\u0abe\u0aae": 1736,
  "\u2581whole": 1737,
  "\u2581\u0935\u094d\u092f\u0915\u094d": 1738,
  "\u0dbb\u0dca": 1739,
  "\u2581King": 1740,
  "\u0a24\u0a3e": 1741,
  "\u2581Search": 1742,
  "\u2581\u0926\u0947": 1743,
  "\u2581\u0909\u0928\u094d\u0939\u0947\u0902": 1744,
  "\u2581\u062f\u06cc\u06ba": 1745,
  "\u2581group": 1746,
  "\u2581\u0a1c\u0a3e\u0a02": 1747,
  "\u2581\u062a\u0645\u06c1\u0627\u0631\u06cc": 1748,
  "\u2581Prophet": 1749,
  "\u0627\u062a": 1750,
  "\u09a1": 1751,
  "\u2581\u06aa\u0627\u0641\u0631\u0646": 1752,
  "\u2581\u0db8\u0d9c\u0dda": 1753,
  "\u2581\u0915\u0947\u0932\u093e": 1754,
  "\u2581ministry": 1755,
  "\u2581Unknown": 1756,
  "\u2581joy": 1757,
  "\u2581stand": 1758,
  "\u2581\u0644\u06cc\u06a9\u0646": 1759,
  "\u2581\u0d94\u0dba\u0dcf\u0da7": 1760,
  "\u0dad": 1761,
  "\u2581`%": 1762,
  "\u2581cast": 1763,
  "\u2581\u0986": 1764,
  "\u2581\u0639\u0645\u0644": 1765,
  "\u2581Merciful": 1766,
  "\u2581K": 1767,
  "\u2581start": 1768,
  "\u2581\u062f\u0648\u0633\u062a": 1769,
  "\u2581\u0930\u093e\u091c\u093e": 1770,
  "\u2581alone": 1771,
  "\u2581please": 1772,
  "\u2581kind": 1773,
  "G": 1774,
  "\u099a": 1775,
  "\u2581\u0648\u0686": 1776,
  "\u2581\u0924\u0930\u0939": 1777,
  "\u2581preaching": 1778,
  "\u2581hard": 1779,
  "\u2581T": 1780,
  "\u2581\u0633\u06a9\u062a\u06d2": 1781,
  "\u2581\u06be\u062f\u0627\u064a\u062a": 1782,
  "\u2581\u0932\u0947\u0932": 1783,
  "\u2581\u0930\u0939\u0947": 1784,
  "\u0b38": 1785,
  "\u2581mashkar": 1786,
  "un": 1787,
  "ch": 1788,
  "\u2581\u0b28\u0b3e\u0b2e": 1789,
  "\u062a\u06cc": 1790,
  "\u2581\u0928\u0935\u0940\u0928": 1791,
  "\u2581\u06a9\u06c1\u06c1": 1792,
  "\u2581raised": 1793,
  "\u2581option": 1794,
  "\u2581\u09a4\u09be\u09b2\u09bf\u0995\u09be": 1795,
  ":%": 1796,
  "\u2581\u0646\u0645\u0627\u0632": 1797,
  "\u2581\u0daf\u0dd9\u0dc0\u0dd2": 1798,
  "\u2581phral": 1799,
  "\u0997": 1800,
  "\u2581\u0aa4\u0acb": 1801,
  "\u2581\u091a\u093f\u0924\u094d\u0930": 1802,
  "\u2581Muhammad": 1803,
  "\u0b25\u0b3f\u0b2c\u0b3e": 1804,
  "and": 1805,
  "est": 1806,
  "\u2581\u0aaa\u0ab8\u0a82\u0aa6": 1807,
  "\u2581\u0645\u0646\u062c\u06be": 1808,
  "\u2581\u06c1\u0648\u06af\u0627": 1809,
  "\u2581Read": 1810,
  "New": 1811,
  "\u2581\u09aa\u09cd\u09f0\u09a6\u09f0\u09cd\u09b6\u09a8": 1812,
  "\u2581sim": 1813,
  "\u2581result": 1814,
  "\u2581answer": 1815,
  "\u2581\u0a9c\u0ac7": 1816,
  "\u2581\u092e\u0947": 1817,
  "\u2581\u0644\u06cc\u0627": 1818,
  "\u2581gives": 1819,
  "\u2581\u0a32\u0a4b\u0a15\u0a3e\u0a02": 1820,
  "],": 1821,
  "\u2581\u0db1\u0dd2\u0dc3\u0dcf": 1822,
  "\u2581godi": 1823,
  "\u2581\u0b06\u0b2a\u0b23": 1824,
  "\u062a\u0647": 1825,
  "\u2581\u0924\u094d\u092f\u093e\u0902\u091a\u094d\u092f\u093e": 1826,
  "\u0924\u094b": 1827,
  "lo": 1828,
  "\u2581share": 1829,
  "at": 1830,
  "\u2581\u0986\u09ae\u09be\u09a6\u09c7\u09b0": 1831,
  "\u2581\u0a15\u0a4b\u0a08": 1832,
  "\u094d\u0938": 1833,
  "4": 1834,
  "This": 1835,
  "\u2581\u0916\u0947\u0932": 1836,
  "\u2581\u0aa5\u0aaf\u0ac7\u0ab2": 1837,
  "\u2581project": 1838,
  "\u2581\u0622\u06be\u064a\u0646": 1839,
  "\u2581thus": 1840,
  "\u2581Message": 1841,
  "\u2581nations": 1842,
  "\u064a\u0644": 1843,
  "\u2581Devleske": 1844,
  "\u2581obey": 1845,
  "\u094d\u092f\u093e": 1846,
  "\u2581\u0935\u093f": 1847,
  "\u2581search": 1848,
  "\u2581\u092a\u093e\u0938": 1849,
  "\u2581\u0b24\u0b3e\u0b32\u0b3f\u0b15\u0b3e": 1850,
  "\u2581\u0a15\u0a70\u0a2e": 1851,
  "\u2581\u0a85": 1852,
  "\u2581\u0686\u064a\u0627\u0626\u0648\u0646": 1853,
  "\u2581\u099b\u09ac\u09bf": 1854,
  "\u2581directory": 1855,
  "\u2581pass": 1856,
  "\u2581makes": 1857,
  "\u2581R": 1858,
  "\u2581\u0db1\u0db8\u0dca": 1859,
  "\u0ab5": 1860,
  "\u0a48": 1861,
  "\u2581greater": 1862,
  "z": 1863,
  "\u2581\u0906\u091c": 1864,
  "\u0925": 1865,
  "\u2581\u0a8f\u0a95": 1866,
  "\u2581\u0932\u094b\u0915\u093e\u0902\u0928\u093e": 1867,
  "\u0633\u0648\u0646": 1868,
  "\u062a\u068f\u06be\u0646": 1869,
  "\u2581swako": 1870,
  "\u2581unbelievers": 1871,
  "\u0948": 1872,
  "\u25815:": 1873,
  "\u2581kingdom": 1874,
  "\u2581drink": 1875,
  "\u0915\u0947": 1876,
  "\u2581\u0627\u0648\u0644\u0627\u062f": 1877,
  "\u092b": 1878,
  "\u2581soon": 1879,
  "\u2581disbelievers": 1880,
  "\u2581\u0622\u06be\u064a\u0627\u0646": 1881,
  "\u062a\u0646\u06be\u0646": 1882,
  "\u2581\u09af\u09a6\u09bf": 1883,
  "\u2581anglal": 1884,
  "\u2581\u06aa\u064a\u0627\u0626\u064a\u0646": 1885,
  "\u2581\u09b9\u099a\u09cd\u099b\u09c7": 1886,
  "\u0a39": 1887,
  "\u2581try": 1888,
  "\u2581folders": 1889,
  "\u2581\u0dc4\u0dcf": 1890,
  "\u0627\u0633": 1891,
  "\u2581wicked": 1892,
  "\u2581delete": 1893,
  "\u2581\u0924\u094d\u092f\u093e\u0902\u0928\u0940": 1894,
  "\u2581Wo": 1895,
  "\u2581thought": 1896,
  "\u2581kon": 1897,
  "\u2581traio": 1898,
  "\u2581\u0633\u0648\u0627": 1899,
  "\u2581Be": 1900,
  "\u2581got": 1901,
  "\u2581GNOME": 1902,
  "\u2581\u0a39\u0a4b\u0a30": 1903,
  "\u2581\u0926\u093f\u0928": 1904,
  "\u2581\u0936\u0915\u0924\u094b": 1905,
  "\u2581\u09b0": 1906,
  "\u2581task": 1907,
  "\u2581\u0938\u0947\u0935\u093e": 1908,
  "\u2581\u092a": 1909,
  "\u0b5f": 1910,
  "\u2581ten": 1911,
  "\u2581lo": 1912,
  "\u2581\u062a\u068f\u06be\u0646": 1913,
  "\u2581marriage": 1914,
  "\u2581\u092a\u094d\u0930\u0915\u093e\u0930": 1915,
  "\u092e\u093e": 1916,
  "\u2581side": 1917,
  "\u0aa4": 1918,
  "\u2581\u0989\u09aa\u09b8\u09cd\u09a5\u09bf\u09a4": 1919,
  "\u2581friends": 1920,
  "\u099f\u09be": 1921,
  "\u2581\u0938\u0915\u0924\u093e": 1922,
  "\u2581\u092c\u0939\u0941\u0924": 1923,
  "\u2581Te": 1924,
  "\u2581\u0648\u068f\u064a": 1925,
  "\u2581sound": 1926,
  "\u0b1f\u0b3f": 1927,
  "\u2581\u0627\u0628": 1928,
  "\u2581\u0633\u0628\u0628\u0627\u0646": 1929,
  "\u062c": 1930,
  "\u2581\u06c1\u06cc\u06ba\u06d4": 1931,
  "\u2581add": 1932,
  "\u2581fathers": 1933,
  "\u2581pray": 1934,
  "\u2581doubt": 1935,
  "la": 1936,
  "\u0646\u0647": 1937,
  "\u2581Yahweh": 1938,
  "\u2581field": 1939,
  "\u2581\u09a4\u09cb\u09ae\u09be\u09a6\u09c7\u09b0": 1940,
  "\u0924\u0940\u0932": 1941,
  "\u2581wise": 1942,
  "\u2581\u099a\u09bf\u09b9\u09cd\u09a8\u09bf\u09a4": 1943,
  "ic": 1944,
  "\u2581\u0995\u09f0\u09c7": 1945,
  "\u2581\u0627\u06cc\u0633\u06d2": 1946,
  "\u2581\u09a8\u09bf": 1947,
  "\u2581guided": 1948,
  "\u0941": 1949,
  ",\"": 1950,
  "\u2581creation": 1951,
  "\u2581apostles": 1952,
  "pesko": 1953,
  "\u2581mange": 1954,
  "\u2581case": 1955,
  "\u2581husband": 1956,
  "\u2581LORD": 1957,
  "1": 1958,
  "\u2581\u0645\u0627\u06bb\u06be\u0648": 1959,
  "\u2581along": 1960,
  "\u2581\u0642\u064a\u0627\u0645\u062a": 1961,
  "\u2581lost": 1962,
  "\u0628\u064a\u0627\u0646": 1963,
  "\u258120": 1964,
  "\u2581someone": 1965,
  "\u0646\u06be\u064a\u0621": 1966,
  "\u2581\u0995\u09cb\u09a8": 1967,
  "\u2581\u092a\u0930\u092e\u0947\u0936\u094d\u0935\u0930": 1968,
  "\u2581\u092a\u0924\u093e": 1969,
  "\u2581rhaio": 1970,
  "\u2581\u092e\u093e\u0928": 1971,
  "\u0633\u0680\u06aa\u0646\u06be\u0646": 1972,
  "\u2581colour": 1973,
  "\u2581yourself": 1974,
  "\u2581\u0633\u0648\u0646": 1975,
  "\u2581\u0d9a\u0dc5": 1976,
  "\u2581provided": 1977,
  "\u258111": 1978,
  "\u25816:": 1979,
  "\u2581source": 1980,
  "\u2581andai": 1981,
  "\u2581\u0632\u06cc\u0627\u062f\u06c1": 1982,
  "\u2581\u0d94\u0db6": 1983,
  "\u2581guide": 1984,
  "\u0a70": 1985,
  "\u091c\u093c": 1986,
  "\u2581\u0b38\u0b02\u0b30\u0b15\u0b4d\u0b37\u0b23": 1987,
  "\u2581temple": 1988,
  "\u2581\u09af\u09cb\u0997": 1989,
  "\u2581\u0a26\u0a40\u0a06\u0a02": 1990,
  "\u2581hold": 1991,
  "\u2581People": 1992,
  "\u2581\u0995\u09f0\u09bf\u09ac\u09b2\u09c8": 1993,
  "\u2581forgive": 1994,
  "\u2581\u06be\u064a": 1995,
  "\u2581authority": 1996,
  "\u0a1f": 1997,
  "\u2581\u062c": 1998,
  "\u2581continue": 1999,
  "\u2581changes": 2000,
  "ri": 2001,
  "\u2581\u06af\u068f": 2002,
  "\u2581Will": 2003,
  "\u092c\u093e": 2004,
  "\u2581\u09a8\u09be\u0987": 2005,
  "\u2581\u092e": 2006,
  "\u2581write": 2007,
  "\u2581remain": 2008,
  "\u2581\u0986\u09aa\u09c1\u09a8\u09bf": 2009,
  "\u2581\u068f\u0646\u0648": 2010,
  "\u25819": 2011,
  "\u2581\u0938\u0942\u091a\u0940": 2012,
  "\u2581bad": 2013,
  "\u2581prophet": 2014,
  "\u2581voice": 2015,
  "\u2581\u06a9\u06c1\u062a\u06d2": 2016,
  "\u2581\u0b38\u0b39\u0b3f\u0b24": 2017,
  "\u2581\u06c1\u062f\u0627\u06cc\u062a": 2018,
  "\u2581vriama": 2019,
  "\u2581\u0938\u0915\u0924\u0947": 2020,
  "\u2581\u099c\u09a8": 2021,
  "\u2581Of": 2022,
  "\u0627\u0648\u0631": 2023,
  "\u2581benefit": 2024,
  "\u2581Adam": 2025,
  "\u2581kerdia": 2026,
  "\u2581stato": 2027,
  "\u2581Pharaoh": 2028,
  "\u2581language": 2029,
  "\u2581\u062a\u0639\u0627\u0644\u06cc": 2030,
  "\u2581purpose": 2031,
  "ul": 2032,
  "\u2581\u0d9a\u0dbb\u0db1": 2033,
  "\u2581\u0622\u0646\u062f\u0648": 2034,
  "\u093e\u0902\u0928\u093e": 2035,
  "\u2581\u0d9a\u0dbb": 2036,
  "\u2581M": 2037,
  "\u2581\u0dc4\u0dbb\u0dd2": 2038,
  "\u064a\u0648\u0646": 2039,
  "\u2581behold": 2040,
  "\u2581ferdi": 2041,
  "\u2581\u09b8\u09be\u09a5\u09c7": 2042,
  "\u2581\u0622\u0626\u06d2": 2043,
  "\u2581\u0928\u093f": 2044,
  "\u2581\u0ab0\u0ac0\u0aa4\u0ac7": 2045,
  "\u2581\u0a38\u0a15\u0a26\u0a3e": 2046,
  "\u2581supported": 2047,
  "\u2581Spirit": 2048,
  "\u2581tree": 2049,
  "\u2581\u0641\u0636\u0644": 2050,
  "\u2581covenant": 2051,
  "\u2581Joseph": 2052,
  "\u258118": 2053,
  "\u2581\u0631\u06c1\u0627": 2054,
  "\u2581\u0631\u0627\u06c1": 2055,
  "\u2581\u092e\u0926\u0924": 2056,
  "\u25811,": 2057,
  "\u2581\u09b2\u09be\u09b9": 2058,
  "\u2581\u0b15\u0b30\u0b41\u0b05\u0b1b\u0b3f": 2059,
  "\u2581\u0646\u0635\u064a\u062d\u062a": 2060,
  "\u2581Display": 2061,
  "\u2581\u067e\u064a\u062f\u0627": 2062,
  "\u0aa1": 2063,
  "\u2581\u0645\u06cc\u0631\u06cc": 2064,
  "\u2581followed": 2065,
  "\u0acd": 2066,
  "\u2581\u0925\u0940": 2067,
  "\u2581\u09a8": 2068,
  "\u2581lead": 2069,
  "\u2581Hereafter": 2070,
  "\u2581akana": 2071,
  "\u093e\u0935\u0930": 2072,
  "\u093f\u0915": 2073,
  "\u2581\u062f\u06cc\u062a\u0627": 2074,
  "\u09cd\u09a4": 2075,
  "\u2581Such": 2076,
  "\u2581zhanen": 2077,
  "\u2581\u062f\u0644\u064a": 2078,
  "\u2581\u0dc3\u0dc4": 2079,
  "\u2581destroyed": 2080,
  "\u2581ourselves": 2081,
  "\u2581promised": 2082,
  "\u2581fellow": 2083,
  "\u0b2c": 2084,
  "\u2581accept": 2085,
  "\u2581drago": 2086,
  "\u2581Invalid": 2087,
  "\u0b30\u0b41": 2088,
  "\u2581within": 2089,
  "\u0d9a\u0da7": 2090,
  "\u2581Asia": 2091,
  "\u2581\u0a2b\u0a3e\u0a07\u0a32": 2092,
  "\u2581\u09b8\u09c7\u0987": 2093,
  "\u2581\u0633\u0686": 2094,
  "\u2581tumar": 2095,
  "\u2581elders": 2096,
  "\u2581\u0915\u093f\u0938\u0940": 2097,
  "\u2581commanded": 2098,
  "\u2581forgiveness": 2099,
  "\u2581default": 2100,
  "\u2581Thou": 2101,
  "\u2581\u092c": 2102,
  "\u2581Their": 2103,
  "\u2581phuv": 2104,
  "\u0b17\u0b41\u0b21\u0b3c\u0b3f\u0b15": 2105,
  "\u2581\u09ac\u09cd\u09af\u09b0\u09cd\u09a5": 2106,
  "\u2581\u0932\u0947": 2107,
  "\u06af": 2108,
  "\u2581\u0986\u09aa\u09a8\u09bf": 2109,
  "\u2581\u0686": 2110,
  "\u0a9c": 2111,
  "\u2581\u091c\u0940\u0935\u0928": 2112,
  "\u2581\u0635\u0628\u0631": 2113,
  "\u2581\u0915\u0930\u0924": 2114,
  "\u2581\u0b0f\u0b2c\u0b02": 2115,
  "\u2581user": 2116,
  "\u2581\u0a28\u0a3e\u0a02": 2117,
  "\u0686": 2118,
  "\u2581\u0926\u0947\u0935\u093e\u091a\u094d\u092f\u093e": 2119,
  "\u2581\u092a\u0943\u0937\u094d\u0920": 2120,
  "\u2581\u0939\u0941\u090f": 2121,
  "\u2581\u0a15\u0a3f\u0a38": 2122,
  "\u0b2a": 2123,
  "\u2581\u0907\u0938\u094d\u0930\u093e\u090f\u0932": 2124,
  "\u2581judge": 2125,
  "\u2581\u0995\u09f0\u09bf": 2126,
  "\u2581possible": 2127,
  "\u2581)": 2128,
  "\u2581\u0b24\u0b4d\u0b30\u0b41\u0b1f\u0b3f": 2129,
  "\u2581\u0a15\u0a3f\u0a39\u0a3e": 2130,
  "\u2581forever": 2131,
  "\u2581\u0906\u0932\u0947": 2132,
  "\u2581Type": 2133,
  "\u0930\u094d": 2134,
  "\u2581feet": 2135,
  "\u062a\u064a": 2136,
  "\u2581\u062a\u0645\u06c1\u0627\u0631\u0627": 2137,
  "\u258114": 2138,
  "\u2581however": 2139,
  "\u2581position": 2140,
  "\u2581\u0b15\u0b30\u0b3f\u0b2a\u0b3e\u0b30\u0b3f\u0b2c\u0b47": 2141,
  "\u2581\u0926\u094b": 2142,
  "\u2581\u092b\u094b\u0932\u094d\u0921\u0930": 2143,
  "W": 2144,
  "\u2581care": 2145,
  "\u2581\u0924\u0941\u092e\u091a\u094d\u092f\u093e": 2146,
  "is": 2147,
  "\u0923\u0947": 2148,
  "\u0a26": 2149,
  "\u2581second": 2150,
  "\u2581\u0939\u092e\u0947\u0902": 2151,
  "\u09b2\u09bf": 2152,
  "\u0a1c\u0a3c": 2153,
  "\u2581servant": 2154,
  "\u2581dui": 2155,
  "\u2581head": 2156,
  "\u2581\u06cc\u06c1\u06cc": 2157,
  "\u258117": 2158,
  "for": 2159,
  "\u2581\u0924\u0941\u092e\u094d\u0939\u093e\u0930\u0947": 2160,
  "\u2581\u0641\u0631\u0639\u0648\u0646": 2161,
  "\u2581lives": 2162,
  "\u09b2\u09be": 2163,
  "\u2581;": 2164,
  "\u2581\u062f\u0627\u062e\u0644": 2165,
  "\u2581\u0642\u0628\u0648\u0644": 2166,
  "\u2581Psalm": 2167,
  "\u2581meeting": 2168,
  "\u2581\u0aa8": 2169,
  "\u2581\u0686\u064a\u0627\u0626\u064a\u0646": 2170,
  "\u2581\u0635\u0631\u0641": 2171,
  "\u2581ID": 2172,
  "\u2581program": 2173,
  "\u2581didn": 2174,
  "\u2581loving": 2175,
  "\u2581\u0684\u0627\u06bb\u0646\u062f\u0627": 2176,
  "\u2581Would": 2177,
  "\u2581five": 2178,
  "\u2581\u0915\u0930\u0928\u093e": 2179,
  "\u2581wealth": 2180,
  "\u0a38\u0a3c": 2181,
  "\u2581\u0628\u0691\u06cc": 2182,
  "\u2581\u0db4": 2183,
  "\u2581\u0926\u0940": 2184,
  "\u0645\u0624\u0645\u0646\u0646": 2185,
  "\u2581sight": 2186,
  "\u2581kher": 2187,
  "\u2581\u092a\u093e\u0939\u093f\u091c\u0947": 2188,
  "\u2581Many": 2189,
  "\u2581Because": 2190,
  "\u2581grace": 2191,
  "\u062e": 2192,
  "\u2581\u06af": 2193,
  "\u2581\u0646\u0639\u0645\u062a": 2194,
  "\u2581\u092a\u093e\u0920": 2195,
  "\u0dbb\u0dcf": 2196,
  "\u0938\u093e": 2197,
  "\u2581\u0915\u0930\u0924\u094b": 2198,
  "\u2581\u0dc0\u0db1": 2199,
  "\u2581\u0645\u062b\u0627\u0644": 2200,
  "\u0933": 2201,
  "\u2581See": 2202,
  "\u2581remove": 2203,
  "\u2581helped": 2204,
  "\u2581\u0627\u06cc\u0633\u0627": 2205,
  "\u2581Address": 2206,
  "\u2581opened": 2207,
  "\u2581Zhiduvuria": 2208,
  "\u2581vari": 2209,
  "\u2581rest": 2210,
  "\u0908": 2211,
  "\u2581\u0909\u0938\u0928\u0947": 2212,
  "\u067e\u0648\u0621": 2213,
  "\u2581\u0995\u09f0\u09be\u09f0": 2214,
  "\u2581since": 2215,
  "\u2581calendar": 2216,
  "\u2581false": 2217,
  "\u2581\u0924\u094d\u0930\u0941\u091f\u093f": 2218,
  "\u2581\u06c1\u0648\u062a\u0627": 2219,
  "\u2581\u0b20\u0b3f\u0b15\u0b23\u0b3e": 2220,
  "\u2581saxke": 2221,
  "\u2581\u092a\u0942\u0930\u094d\u0923": 2222,
  "\u2581personal": 2223,
  "\u2581provide": 2224,
  "\u2581Scriptures": 2225,
  "If": 2226,
  "\u2581\u092f\u0940\u0936\u0941": 2227,
  "\u2581\u0995\u09bf\u09a8\u09cd\u09a4\u09c1": 2228,
  "\u2581device": 2229,
  "\",": 2230,
  "te": 2231,
  "\u2581\u0918\u0930": 2232,
  "\u09ae\u09be": 2233,
  "\u2581judgment": 2234,
  "\u2581strong": 2235,
  "\u2581Noah": 2236,
  "\u2581\u092a\u094d\u0930": 2237,
  "\u2581item": 2238,
  "\u2581date": 2239,
  "\u2581\u0dc0\u0dd9\u0db1\u0dca\u0db1": 2240,
  "\u2581\u062f\u064a\u0646": 2241,
  "\u2581Delete": 2242,
  "\u2581avilo": 2243,
  "\u2581\u062c\u0633\u06d2": 2244,
  "\u2581praise": 2245,
  "\u06be\u0646": 2246,
  "\u06cc\u06c1": 2247,
  "\u2581once": 2248,
  "\u2581\u09ac\u09be\u09b0\u09cd\u09a4\u09be": 2249,
  "\u2581\u0968": 2250,
  "\u2581\u0644\u0627\u0626\u06d2": 2251,
  "\u2581\u0680": 2252,
  "\u0dc0\u0dad\u0dca": 2253,
  "\u2581\u0917": 2254,
  "\u2581Matthew": 2255,
  "\u2581\u0637\u0648\u0631": 2256,
  "\u094d": 2257,
  "\u2581\u0935\u091a\u0928": 2258,
  "\u2581Dat": 2259,
  "It": 2260,
  "\u062c\u0627": 2261,
  "\u2581\u0627\u06be\u0648": 2262,
  "\u0a8f": 2263,
  "\u2581changed": 2264,
  "\u2581\u092a\u094d\u0930\u0947\u092e": 2265,
  "\u2581returned": 2266,
  "\u2581\u0d91\u0dba\u0dcf": 2267,
  "\u2581humans": 2268,
  "\u2581belongs": 2269,
  "\u2581vas": 2270,
  "\u2581state": 2271,
  "\u2581\u06af\u0626\u06cc": 2272,
  "\u2581\u0639": 2273,
  "\u0915\u094d\u0937": 2274,
  "\u2581Enable": 2275,
  "\u2581\u0909\u0938\u0915\u0940": 2276,
  "\u2581kris": 2277,
  "\u2581mui": 2278,
  "\u0640": 2279,
  "\u2581\u09a4\u09cb\u09ae\u09b0\u09be": 2280,
  "\u2581taught": 2281,
  "\u2581Shav": 2282,
  "\u2581\u0628\u0644\u06aa": 2283,
  "\u2581\u062e\u0648\u062f": 2284,
  "\u2581\u09b8\u0982\u09af\u09cb\u0997": 2285,
  "\u2581sun": 2286,
  "\u2581\u09a4\u09c1\u09ae\u09bf": 2287,
  "\u099c": 2288,
  "\u2581fight": 2289,
  "\u2581lie": 2290,
  "\u2581application": 2291,
  "\u2581\u0989\u0987\u09a8\u09cd\u09a1\u09cb": 2292,
  "\u2581age": 2293,
  "\u2060": 2294,
  "\u2581mean": 2295,
  "\u0926\u093e": 2296,
  "\u2581\u06a9\u06cc\u0644\u0626\u06d2": 2297,
  "\u0935\u093f": 2298,
  "\u2581\u092e\u094d\u0939\u0923\u093e\u0932\u093e": 2299,
  "\u2581counsel": 2300,
  "\u2581\u0907\u0924\u0930": 2301,
  "\u2581wish": 2302,
  "\u2581\u092a\u093e": 2303,
  "\u2581\u09aa\u09cd\u09f0": 2304,
  "\u2581self": 2305,
  "\u2581respect": 2306,
  "\u2581\u098f\u09b0": 2307,
  "\u2581Hell": 2308,
  "\u2581takes": 2309,
  "\u09ad": 2310,
  "\u2581Resurrection": 2311,
  "\u2581version": 2312,
  "\u0a02": 2313,
  "\u2581Key": 2314,
  "\u2581money": 2315,
  "\u2581Mary": 2316,
  "\u2581\u0a9c\u0acb": 2317,
  "\u2581len": 2318,
  "\u2581]": 2319,
  "\u0ac1": 2320,
  "\u0ac1\u0a82": 2321,
  "\u2581\u0930\u0939\u0932": 2322,
  "\u2581Text": 2323,
  "\u2581fine": 2324,
  "\u2581century": 2325,
  "\u2581anav": 2326,
  "\u0626\u06d2": 2327,
  "\u2581god": 2328,
  "\u2581fruit": 2329,
  "\u2581\u0935\u093f\u0902\u0921\u094b": 2330,
  "\u2581\u0938\u093e": 2331,
  "\u2581hour": 2332,
  "\u0939\u093f": 2333,
  "\u258116": 2334,
  "\u2581small": 2335,
  "\u0abf\u0aa4": 2336,
  "\u2581un": 2337,
  "\u2581\u0635": 2338,
  "\u2581local": 2339,
  "\u2581future": 2340,
  "\u2581Solomon": 2341,
  "\u2581kadala": 2342,
  "\u2581died": 2343,
  "\u2581\u067b\u0627\u062c\u06be": 2344,
  "\u2581\u06a9\u06cc\u0648\u06ba": 2345,
  "\u2581onto": 2346,
  "\u2581towards": 2347,
  "\u2581Last": 2348,
  "\u0a26\u0a3e": 2349,
  "\u2581\u0906\u0924\u093e": 2350,
  "\u2581\u0628\u0644\u06a9\u06c1": 2351,
  "\".": 2352,
  "\u2581\u09ac\u09bf": 2353,
  "\u2581\u06a9\u06c1\u06cc\u06ba": 2354,
  "\u2581besides": 2355,
  "sh": 2356,
  "\u2581\u06cc\u0642\u06cc\u0646\u0627": 2357,
  "\u2581\u0930\u093e\u091c\u094d\u092f": 2358,
  "\u0dc4": 2359,
  "\u2581morning": 2360,
  "\u2581act": 2361,
  "\u2581\u0686\u0627\u06c1\u062a\u0627": 2362,
  "My": 2363,
  "\u2581\u0995\u09bf\u099b\u09c1": 2364,
  "\u2581\u06a9\u0633": 2365,
  "\u2581video": 2366,
  "He": 2367,
  "\u2581\u0907": 2368,
  "\u09ad\u09be\u09ac\u09c7": 2369,
  "\u2581KDE": 2370,
  "\u2581\u0924\u092c": 2371,
  "\u2581\u068f\u064a\u0646\u062f\u0648": 2372,
  "\u2581check": 2373,
  "ring": 2374,
  "\u2581giving": 2375,
  "\u0dba\u0dda": 2376,
  "\u2581\u092c\u093e\u092f\u092c\u0932": 2377,
  "\u2581\u062a\u0646\u06be\u0646\u062c\u0648": 2378,
  "\u2581\u0db4\u0dd4\u0dc5\u0dd4\u0dc0\u0db1\u0dca": 2379,
  "\u2581\u0dba\u0db1\u0dca\u0db1": 2380,
  "\u2581\u06aa\u064a\u0627": 2381,
  "\u2581\u092a\u0939\u0932\u0947": 2382,
  "\u2581truly": 2383,
  "\u2581\u0648\u068c\u064a\u06aa": 2384,
  "\u093e\u0908": 2385,
  "\u0db1\u0dca\u0db1": 2386,
  "\u2581kill": 2387,
  "\u2581format": 2388,
  "\u2581least": 2389,
  "\u2581\u09aa\u09b0": 2390,
  "\u2581war": 2391,
  "\u2581\u0632\u0646\u062f\u06af\u06cc": 2392,
  "\u2014": 2393,
  "\u2581\u092c\u093e\u0930\u0947": 2394,
  "\u2581\u06be\u064a\u0621": 2395,
  "\u2581pai": 2396,
  "\u2581art": 2397,
  "\u2581\u068f\u064a": 2398,
  "\u2581\u0641\u0631\u0645\u0627": 2399,
  "ko": 2400,
  "no": 2401,
  "\u2581\u092e\u094d\u0939\u0923\u091c\u0947": 2402,
  "\u2581Copy": 2403,
  "\u2581listen": 2404,
  "\u2581\u0930\u0942\u092a": 2405,
  "\u2581questions": 2406,
  "\u2581rather": 2407,
  "\u2581Vorba": 2408,
  "\u2581disipluria": 2409,
  "\u2581\u06c1\u0648\u0626\u06cc": 2410,
  "\u2581\u0aad\u0ac2\u0ab2": 2411,
  "\u2581\u064a\u0627\u062f": 2412,
  "\u2581walk": 2413,
  "\u2581Did": 2414,
  "\u2581\u0a15\u0a3f\u0a35\u0a47\u0a02": 2415,
  "\u2581gone": 2416,
  "\u2581\u0939\u092e\u0928\u0947": 2417,
  "\u2581teaching": 2418,
  "\u2581\u09b8\u0982\u09f0\u0995\u09cd\u09b7\u09a3": 2419,
  "\u2581\u06aa\u0648\u0699": 2420,
  "\u2581\u062c\u0627\u0624": 2421,
  "all": 2422,
  "\u2581manifest": 2423,
  "\u2581bare": 2424,
  "\u2581blessings": 2425,
  "\u2581amaro": 2426,
  "\u2581\u062d\u062f": 2427,
  "\u2581kept": 2428,
  "\u09cd\u09af\u09be": 2429,
  "\u2581\u0633\u0627": 2430,
  "\u2581required": 2431,
  "\u2581\u06cc\u0627\u062f": 2432,
  "\u0a2c": 2433,
  "\u2581fall": 2434,
  "\u0a21": 2435,
  "\u2581talk": 2436,
  "\u2581sky": 2437,
  "\u2581allow": 2438,
  "\u2581\u0939\u0941\u0906": 2439,
  "\u2581\u09b8\u09c8\u09a4\u09c7": 2440,
  "\u258113": 2441,
  "\u2581\u0a38\u0a3e\u0a21\u0a47": 2442,
  "\u2581\u0644\u0648": 2443,
  "\u09ac\u09c7": 2444,
  "\u062c\u06be": 2445,
  "\u2581specified": 2446,
  "\u2581article": 2447,
  "\u2581Swunto": 2448,
  "\u2581\u062c\u0627\u062a\u0627": 2449,
  "\u2581wait": 2450,
  "\u2581strength": 2451,
  "\u2581g": 2452,
  "\u2581\u06be\u067f": 2453,
  "\u2581point": 2454,
  "\u2581\u0dba\u0dd9\u0dc4\u0ddd\u0dc0\u0dcf": 2455,
  "\u2581\u062f\u0648\u0646\u0648\u06ba": 2456,
  "\u0a9f": 2457,
  "\u2581N": 2458,
  "\u2581\u06af\u06be": 2459,
  "\u2581\u0627\u0646\u06be\u064a\u0621": 2460,
  "\u067e\u068c\u0631\u0648": 2461,
  "\u2581\u0d86": 2462,
  "\u2581location": 2463,
  "\u2581\u0986\u09aa\u09a8\u09be\u09b0": 2464,
  "\u0dbd\u0dd2": 2465,
  "\u2581\u0db1\u0dd2": 2466,
  "\u0699": 2467,
  "\u2581Time": 2468,
  "\u2581images": 2469,
  "\u2581\u0905\u0917\u0930": 2470,
  "\u2581instead": 2471,
  "\u2581URL": 2472,
  "Do": 2473,
  "\u0abf": 2474,
  "\u2581painful": 2475,
  "\u2581\u0908": 2476,
  "\u2581\u062e\u0648\u0628": 2477,
  "\u2581\u0a15\u0a3f\u0a09\u0a02": 2478,
  "\u2581lumia": 2479,
  "\u2581tumaro": 2480,
  "\u0a3e\u0a08": 2481,
  "\u2581\u0928\u093e": 2482,
  "\u2581places": 2483,
  "\u2581run": 2484,
  "\u2581\u0a15\u0a30\u0a15\u0a47": 2485,
  "\u2581Holy": 2486,
  "\u2581\u062f\u0648\u0633\u0631\u06d2": 2487,
  "\u2581den": 2488,
  "\u2581\u0d85\u0db4\u0dd2\u0da7": 2489,
  "\u2581\u092b\u093c\u094b\u0932\u094d\u0921\u0930": 2490,
  "\u2581\u062f\u06cc\u062a\u06d2": 2491,
  "\u2581\u091c\u093e\u090f": 2492,
  "\u2581desires": 2493,
  "\u2581\u0915\u0930\u094b": 2494,
  "\u2581\u0926": 2495,
  "\u2581\u0627\u0639\u0645\u0627\u0644": 2496,
  "\u2581wives": 2497,
  "\u2581\u0a06": 2498,
  "\u2581\u062c\u0627\u0646\u062a\u0627": 2499,
  "\u2581\u091a\u093e\u0932": 2500,
  "\u2581\u092e\u0941\u091d\u0947": 2501,
  "Allah": 2502,
  "\u2581\u062d\u0627\u0644": 2503,
  "\u2581Close": 2504,
  "\u099f\u09cb": 2505,
  "\u0646\u062f\u0627": 2506,
  "\u2581revelations": 2507,
  "\u2581understanding": 2508,
  "\u2581anointed": 2509,
  "\u2581draw": 2510,
  "\u2581\u0633\u0631": 2511,
  "\u0dbb\u0dd2": 2512,
  "\u2581\u0a1c\u0a26\u0a4b\u0a02": 2513,
  "\u2581\u062d\u0627\u0635\u0644": 2514,
  "\u2581kado": 2515,
  "\u2581murh": 2516,
  "\u2581zhi": 2517,
  "\u2581killed": 2518,
  "\u2581\u0648\u067d\u0627\u0646": 2519,
  "\u2581baptized": 2520,
  "\u2581\u09b9\u09b2\u09c7": 2521,
  "\u2581poor": 2522,
  "\u2581control": 2523,
  "\u0938\u0947": 2524,
  "\u2581options": 2525,
  "\u0ab0\u0ac0": 2526,
  "\u2581\u0633\u0645\u062c\u06be": 2527,
  "\u2581\u0b15\u0b4c\u0b23\u0b38\u0b3f": 2528,
  "\u2581Start": 2529,
  "\u2581reading": 2530,
  "\u2581\u0628\u06cc\u0627\u0646": 2531,
  "\u2581\u0631\u06a9\u06be\u062a\u06d2": 2532,
  "\u0637": 2533,
  "\u2581\u0a15\u0a30\u0a26\u0a3e": 2534,
  "\u2581\u0905\u0936\u093e": 2535,
  "\u0627\u0626\u064a": 2536,
  "\u2581Antunchi": 2537,
  "\u2581Duxo": 2538,
  "\u2581Default": 2539,
  "\u2581Isaiah": 2540,
  "\u2581country": 2541,
  "\u2581meet": 2542,
  "\u2581\u0628\u0627\u0631\u06d2": 2543,
  "\u2581s": 2544,
  "\u0dc0\u0db1": 2545,
  "\u2581lest": 2546,
  "\u2581enjoy": 2547,
  "\u2581\u0648\u0627\u0644\u06cc": 2548,
  "\u2581\u0686\u06b1\u0627": 2549,
  "\u2581conduct": 2550,
  "\u2581\u0938\u0902": 2551,
  "\u2581\u0a32\u0a4b\u0a15": 2552,
  "\u0928\u094d": 2553,
  "\u2581\u0daf": 2554,
  "':": 2555,
  "\u092e\u0927\u094d\u092f\u0947": 2556,
  "\u0902\u0917": 2557,
  "\u2581\u0645\u0646\u06be\u0646\u062c\u0648": 2558,
  "\u2581\u0939\u0930": 2559,
  "\u2581happy": 2560,
  "\u2581\u06cc\u0633\u0648\u0639": 2561,
  "\u2581exists": 2562,
  "\u2581needed": 2563,
  "\u2581\u092f\u094b\u0917\u094d\u092f": 2564,
  "\u2581\u090f": 2565,
  "ers": 2566,
  "do": 2567,
  "\u2581\u0daf\u0dd0\u0db1\u0dca": 2568,
  "\u2581\u0a86\u0aaa\u0aa3\u0ac7": 2569,
  "\u2581avoid": 2570,
  "\u2581\u091d\u093e\u0932\u093e": 2571,
  "\u2581\u0a30\u0a3f\u0a39\u0a3e": 2572,
  "\u2581whosoever": 2573,
  "\u2581\u09ab\u09cb\u09b2\u09cd\u09a1\u09be\u09b0": 2574,
  "?\u201d": 2575,
  "\u2581\u092f\u0947\u0936\u0942": 2576,
  "\u2581putiera": 2577,
  "\u2581taking": 2578,
  "\u2581kindness": 2579,
  "\u2581\u09ac\u09a8\u09cd\u09a7": 2580,
  "\u2581clubs": 2581,
  "+": 2582,
  "\u2581\u091c": 2583,
  "K": 2584,
  "\u2581blind": 2585,
  "\u2581\u0dc0\u0dd9\u0db1\u0dc0\u0dcf": 2586,
  "\u2581\u0915\u0947\u0901": 2587,
  "\u2581\u0b05\u0b2a\u0b38\u0b3e\u0b30\u0b23": 2588,
  "\u2581\u0686\u06b1\u0648": 2589,
  "\u2581\u0645\u0648\u062a": 2590,
  "\u2581mothol": 2591,
  "\u2581\u0686\u06be\u0648\u0691": 2592,
  "\u2581\u0926\u093f\u0932\u0947": 2593,
  "\u2581\u0a1c\u0a47": 2594,
  "\u2581\u0d94\u0dc0\u0dd4\u0db1\u0dca": 2595,
  "\u2581\u0639\u0637\u0627": 2596,
  "\u2581\u06aa\u0627\u0641\u0631": 2597,
  "\u2581\u0d85\u0dba": 2598,
  "\u2581Window": 2599,
  "\u2581choose": 2600,
  "\u2581phende": 2601,
  "\u2581pay": 2602,
  "\u0930\u0947": 2603,
  "\u0a26\u0a47": 2604,
  "\u0639\u0627": 2605,
  "\u2581Paradise": 2606,
  "\u2581\u0dc0\u0dd2": 2607,
  "\u2581denied": 2608,
  "\u2581question": 2609,
  "God": 2610,
  "\u0642\u0631\u0622\u0646": 2611,
  "\u2581\u068f\u0646\u064a": 2612,
  "\u2581\u0627\u067e\u0646\u0627": 2613,
  "\u2581\u0938\u094d\u0925\u093e\u0928": 2614,
  "\u2581\u0b38\u0b42\u0b1a\u0b28\u0b3e": 2615,
  "\u2581friend": 2616,
  "\u2581past": 2617,
  "\u2581Don": 2618,
  "].": 2619,
  "\u2581\u0985\u09a8\u09c1\u09b8\u09a8\u09cd\u09a7\u09be\u09a8": 2620,
  "\u2581blessed": 2621,
  "\u2581history": 2622,
  "\u2581\u0905\u0925\u0935\u093e": 2623,
  "\u2581six": 2624,
  "\u2581passed": 2625,
  "\u2581enough": 2626,
  "\u2581complete": 2627,
  "\u2581easy": 2628,
  "\u2581\u0917\u090f": 2629,
  "\u2581\u09a6\u09cd\u09ac\u09be\u09f0\u09be": 2630,
  "\u062f\u06c1": 2631,
  "\u2581\u09b8\u09ae": 2632,
  "\u2581\u0939\u092e\u093e\u0930\u0947": 2633,
  "\u2581\u0939\u094b\u0917\u093e": 2634,
  "\u2581\u0995\u09f0\u09bf\u09ac\u09b2\u09c7": 2635,
  "\u0dc0\u0dd2": 2636,
  "\u2581saith": 2637,
  "\u2581Game": 2638,
  "\u2581angel": 2639,
  "\u2581doesn": 2640,
  "\u2581Number": 2641,
  "\u2581\u0a26\u0a3f\u0a71\u0a24\u0a3e": 2642,
  "\u2581\u0633\u0680": 2643,
  "\u2581\u0d9a\u0dd2\u0dba\u0dcf": 2644,
  "\u258130": 2645,
  "\u2581moved": 2646,
  "\u0dc5": 2647,
  "\u0a9a": 2648,
  "\u2581\u0a95": 2649,
  "\u2581needs": 2650,
  "\u2581experience": 2651,
  "\u2581Devles": 2652,
  "\u2581kotse": 2653,
  "\u2581mishtimos": 2654,
  "\u092e\u0940": 2655,
  "\u0dc3\u0dd2": 2656,
  "\u2581\u06aa\u064a\u0627\u0626\u0648\u0646": 2657,
  "\u064a\u0639\u0646\u064a": 2658,
  "\u09b7": 2659,
  "\u2581sheep": 2660,
  "\u2581shav": 2661,
  "\u0a35": 2662,
  "\u25810": 2663,
  "\u2581Job": 2664,
  "\u2581copy": 2665,
  "\u2581spades": 2666,
  "\u2581term": 2667,
  "\u2581\u0905\u092c": 2668,
  "\u2581due": 2669,
  "\u0aaf": 2670,
  "\u2581chosen": 2671,
  "\u0935\u0940": 2672,
  "\u2581button": 2673,
  "\u0dd4": 2674,
  "\u2581\u09ac\u09cd\u09af\u09ac\u09b9\u09be\u09b0": 2675,
  "\u2581\u0645\u06be\u0631\u0628\u0627\u0646": 2676,
  "\u2581\u09aa\u09f0\u09bf\u099a\u09af\u09bc": 2677,
  "\u2581diamonds": 2678,
  "\u2581\u06be\u0648\u0646\u062f\u0627": 2679,
  "\u2581\u0dc0\u0d9c\u0dda": 2680,
  "\u2581\u0646\u0627\u0645": 2681,
  "\u2581happened": 2682,
  "\u2581\u0645\u0639\u0628\u0648\u062f": 2683,
  "ness": 2684,
  "\u2581\u06a9\u0648\u0646": 2685,
  "\u2581\u0936\u092c\u094d\u0926": 2686,
  "\u2581\u092c\u093e\u0926": 2687,
  "What": 2688,
  "\u2581connection": 2689,
  "\u2581\u0905\u0938\u0947\u0932": 2690,
  "\u2581\u0995\u09be\u099b\u09c7": 2691,
  "\u0b4b": 2692,
  "\u2581Contact": 2693,
  "\u2581Edit": 2694,
  "\u2581\u092c\u0928": 2695,
  "\u2581\u092d\u093e\u0917": 2696,
  "\u2581named": 2697,
  "7": 2698,
  "\u2581Egypt": 2699,
  "\u094c": 2700,
  "\u2581\u092c\u093e\u0907\u092c\u0932": 2701,
  "\u0644\u0648": 2702,
  "\u2581Options": 2703,
  "\u2581che": 2704,
  "\u2581\u0d89\u0db1\u0dca\u0db1": 2705,
  "\u2581Only": 2706,
  "\u09ac\u09bf": 2707,
  "\u2581\u0648\u0633": 2708,
  "\u2581\u0a07\u0a28\u0a4d\u0a39\u0a3e\u0a02": 2709,
  "me": 2710,
  "ha": 2711,
  "\u2581entered": 2712,
  "\u2581\u0642": 2713,
  "\u2581\u092c\u0938": 2714,
  "\u2581\u0a1c\u0a3f\u0a38": 2715,
  "\u2581\u0907\u0928": 2716,
  "\u2581\u092a\u0935\u093f\u0924\u094d\u0930": 2717,
  "\u2581play": 2718,
  "\u2581hell": 2719,
  "\u2581learned": 2720,
  "\u2581early": 2721,
  "\u2581\u062f\u0646\u06cc\u0627": 2722,
  "\u2581unjust": 2723,
  "\u2581spend": 2724,
  "\u2581sense": 2725,
  "\u2581mishto": 2726,
  "\u2581tuke": 2727,
  "\u2581label": 2728,
  "\u2581\u0a2e\u0a26\u0a26": 2729,
  "\u2581Size": 2730,
  "\u0627\u0626\u06cc": 2731,
  "\u2581\u06b3": 2732,
  "\u2581\u09a8\u09c7\u0987": 2733,
  "\u2581fell": 2734,
  "\u2581either": 2735,
  "\u2581\u0a2b\u0a3f\u0a30": 2736,
  "\u2581\u0a39\u0a4b\u0a23": 2737,
  "\u2581prayers": 2738,
  "\u2581\u0d91\u0dba": 2739,
  "\u2581single": 2740,
  "\u2581Files": 2741,
  "\u2581heavenly": 2742,
  "\u2581Find": 2743,
  "\u06aa\u0627": 2744,
  "\u2581\u092e\u0947\u0930\u0947": 2745,
  "\u2581members": 2746,
  "\u2581\u0a38\u0a2d": 2747,
  "\u09a4\u09bf": 2748,
  "\u2581shown": 2749,
  "\u2581\u0905\u0938\u093e": 2750,
  "\u2581\u0909": 2751,
  "\u2581\u0db8\u0d82": 2752,
  "\u2581Quran": 2753,
  "\u2581H": 2754,
  "\u2581suffer": 2755,
  "\u0644\u06cc": 2756,
  "\u067b\u064a\u0648": 2757,
  "\u2581settings": 2758,
  "\u2581\u0645\u06cc\u0631\u0627": 2759,
  "\u2581\u0910\u0938\u093e": 2760,
  "\u2581\u062f\u06cc\u06a9\u06be": 2761,
  "\u0932\u094b": 2762,
  "\u0995\u09be": 2763,
  "\u2581\u0b2c\u0b4d\u0b5f\u0b2c\u0b39\u0b3e\u0b30": 2764,
  "\u2581teach": 2765,
  "\u2581Europe": 2766,
  "\u2581Africa": 2767,
  "\u2581mountains": 2768,
  "ion": 2769,
  "\u2581\u0995\u09b0\u09cb": 2770,
  "\u0b1f": 2771,
  "\u2581Y": 2772,
  "\u2581Enter": 2773,
  "andal": 2774,
  "\u2581\u096b": 2775,
  "\u2581relationship": 2776,
  "\u2581\u0906\u0915\u093e\u0930": 2777,
  "\u2581perfect": 2778,
  "\u0ab6": 2779,
  "\u2581\u0aab\u0abe\u0a88\u0ab2": 2780,
  "\u2581\u06c1\u0648\u0646\u06d2": 2781,
  "\u2581\u0645\u0646\u062c\u06be\u0627\u0646\u0626": 2782,
  "\u2581\u0645\u0642\u0631\u0631": 2783,
  "\u2581\u0631\u062d\u0645\u062a": 2784,
  "\u09c1": 2785,
  "\u2581delivered": 2786,
  "\u2581avri": 2787,
  "\u2581Messengers": 2788,
  "\u2581\u0db6\u0dc0": 2789,
  "\u2581\u06af\u06be\u06bb\u0627": 2790,
  "\u2581etc": 2791,
  "\u2581\u06c1\u0645\u06cc\u0634\u06c1": 2792,
  "\u2581@": 2793,
  "\u2581aver": 2794,
  "6": 2795,
  "\u2581\u096a": 2796,
  "\u2581\u0648\u0627\u0631\u064a": 2797,
  "\u2581\u092e\u0928": 2798,
  "\u2581\u0967\u096f": 2799,
  "\u0ab5\u0ac0": 2800,
  "\u0628\u06be\u06cc": 2801,
  "\u2581\u0924\u094d\u092f\u093e\u091a\u0947": 2802,
  "\u2581\u0aa4\u0ac7\u0a93": 2803,
  "\u0938\u094d\u0924": 2804,
  "\u2581\u09ac\u09b8\u09cd\u09a4\u09c1": 2805,
  "\u2581\u09e7": 2806,
  "\u0d9c": 2807,
  "\u2581\u0627\u0627\u0644\u0644\u0647": 2808,
  "\u2581chastisement": 2809,
  "\u2581\u0906\u092e\u094d\u0939\u0940": 2810,
  "\u2581\u0646\u06cc\u06a9": 2811,
  "\u2581\u092a\u094d\u0930\u093e\u0930\u094d\u0925\u0928\u093e": 2812,
  "\u2581\u09ac\u09bf\u09b7\u09af\u09bc\u09c7": 2813,
  "\u2581Mark": 2814,
  "\u2581Re": 2815,
  "\u0a1c": 2816,
  "\u09ac\u09be": 2817,
  "\u2581session": 2818,
  "\u2581\u09a1\u09bf\u09b8\u09cd\u0995": 2819,
  "\u2581contains": 2820,
  "\u2581\u0909\u092a\u092f\u094b\u0917": 2821,
  "\u06fd": 2822,
  "\u2581\u0926\u0947\u0916\u093e\u092c\u0942": 2823,
  "\u0915\u0921\u0947": 2824,
  "\u09af\u09bc\u09c7": 2825,
  "\u2581\u0995\u09c0": 2826,
  "\u0a4b\u0a02": 2827,
  "\u0b2d": 2828,
  "\u2581harm": 2829,
  "\u2581meetings": 2830,
  "\u2581sacrifice": 2831,
  "\u0b1c": 2832,
  "\u2581events": 2833,
  "\u2581lashi": 2834,
  "\u2581Israelites": 2835,
  "\u2581led": 2836,
  "\u2581\u0915\u090f": 2837,
  "\u2581\u09ae\u09c7\u0987\u09b2": 2838,
  "\u2581thereof": 2839,
  "\u25aa": 2840,
  "\u0627\u0648\u06be\u064a\u0646": 2841,
  "\u0981": 2842,
  "\u062f\u0627": 2843,
  "\u2581\u0642\u0627\u0626\u0645": 2844,
  "\u2581\u0935\u093f\u0937\u092f": 2845,
  "\u2581religious": 2846,
  "\u0915\u0940": 2847,
  "\u093e\u0902\u0928\u0940": 2848,
  "\u2581\u0928\u093e\u0935": 2849,
  "\u2581\u0a85\u0aa5\u0ab5\u0abe": 2850,
  "\u2581prepared": 2851,
  "\u2581\u06aa\u062c\u06be": 2852,
  "\u2581reach": 2853,
  "\u2581\u0b28\u0b15\u0b32": 2854,
  "\u2581space": 2855,
  "\u2581\u0969": 2856,
  "\u2581lies": 2857,
  "\u2581Creator": 2858,
  "\u2581\u0684\u0627\u06bb\u0646\u062f\u0648": 2859,
  "\u2581card": 2860,
  "\u2581resurrection": 2861,
  "\u2581Print": 2862,
  "\u2581foro": 2863,
  "\u0633\u06d2": 2864,
  "\u2581URI": 2865,
  "\u2581\u0905\u0928\u0947\u0915": 2866,
  "\u2581\u091a\u093e\u0939\u093f\u090f": 2867,
  "\u258125": 2868,
  "\u2581\u091a": 2869,
  "\u2581menu": 2870,
  "\u2581mighty": 2871,
  "\u2581\u0928\u093e\u0939\u0940\u0924": 2872,
  "\u2581Wise": 2873,
  "\u2581\u0aa4\u0acd\u0aaf\u0abe\u0ab0\u0ac7": 2874,
  "\u2581\u0932\u0947\u0915\u093f\u0928": 2875,
  "na": 2876,
  "\u2581tele": 2877,
  "\u0db1\u0dd2": 2878,
  "\u2581filled": 2879,
  "\u2581\u0645\u0648\u0633\u06cc": 2880,
  "\u2581network": 2881,
  "\u2581\u06cc\u06c1\u0627\u06ba": 2882,
  "\u2581\u062e\u0648\u0634": 2883,
  "\u2581Page": 2884,
  "\u2581\u0905\u0927\u093f\u0915": 2885,
  "\u2581felt": 2886,
  "\u2581\u0b05": 2887,
  "\u2581\u067e\u0627\u06aa": 2888,
  "\u2581\u0b2c\u0b3f\u0b2b\u0b33": 2889,
  "\u2581load": 2890,
  "ki": 2891,
  "\u2581\u092a\u093e\u092a": 2892,
  "\u2581\u0d9a\u0dbb\u0db1\u0dc0\u0dcf": 2893,
  "\u2581\u09b0\u09af\u09bc\u09c7\u099b\u09c7": 2894,
  "\u2581\u0628\u0627\u06be": 2895,
  "\u2581\u0938\u0941": 2896,
  "\u2581\u0a15\u0a08": 2897,
  "\u2581thousand": 2898,
  "\u06a9\u06d2": 2899,
  "\u2581myself": 2900,
  "\u2581spoke": 2901,
  "\u0dd2\u0db1\u0dca": 2902,
  "\u2581verses": 2903,
  "\u0dad\u0dd2": 2904,
  "\u2581Where": 2905,
  "\u2581\u092a\u094d\u0930\u093e\u092a\u094d\u0924": 2906,
  "\u2581\u0633\u06af\u06be\u0648": 2907,
  "\u2581problems": 2908,
  "\u2581\u0638\u0627\u06c1\u0631": 2909,
  "\u099b\u09c7": 2910,
  "\u2581\u0631\u06be\u06bb": 2911,
  "\u2581\u067e\u0646\u06be\u0646\u062c\u0648": 2912,
  "\u2581\u0628\u06c1\u062a\u0631": 2913,
  "\u2581\u0daf\u0dda": 2914,
  "\u2581cut": 2915,
  "\u2581\u0a2a\u0a39\u0a3f\u0a32\u0a3e\u0a02": 2916,
  "\u0aa3": 2917,
  "\u2581\u0dc0\u0dd4\u0dab\u0dcf": 2918,
  "\u090f\u0901": 2919,
  "\u2581\u0995\u09b0": 2920,
  "\u2581\u0642\u06cc\u0627\u0645\u062a": 2921,
  "\u2581\u09b9\u09af\u09bc\u09c7": 2922,
  "\u2219": 2923,
  "\u2581caused": 2924,
  "um": 2925,
  "\u0b26": 2926,
  "\u0915\u094d": 2927,
  "\u2581\u092c\u0926\u0932": 2928,
  "\u2581event": 2929,
  "\u2581\u0939\u094b\u0908\u0932": 2930,
  "\u0a30\u0a3e": 2931,
  "\u0a42": 2932,
  "\u2581\u09af\u09be\u09b0\u09be": 2933,
  "\u2581\u067f\u064a\u0627": 2934,
  "\u2581\u06aa\u068f\u06be\u0646": 2935,
  "\u2581cho": 2936,
  "\u2581real": 2937,
  "\u0aa7": 2938,
  "\u2581gods": 2939,
  "\u0dd6": 2940,
  "\u0924\u093e\u0924": 2941,
  "\u2581lashimos": 2942,
  "\u2581evidence": 2943,
  "\u2581\u0648\u064a\u0627": 2944,
  "\u2581\u0627\u0646\u06aa\u0627\u0631": 2945,
  "\u2581wanted": 2946,
  "\u2581\u0b27\u0b3e\u0b30\u0b23": 2947,
  "\u2581\u09ac\u09bf\u09a8\u09cd\u09af\u09be\u09b8": 2948,
  "\u2581followers": 2949,
  "\u2581\u062f\u06cc\u0646\u06d2": 2950,
  "\u0b32": 2951,
  "\u0627\u0644": 2952,
  "\u0644\u0627": 2953,
  "\u2581\u0a95\u0acb\u0a88": 2954,
  "\u2581prophets": 2955,
  "\u2581shave": 2956,
  "\u2581Behold": 2957,
  "\u0622\u064a\u062a\u0646": 2958,
  "\u2581\u091c\u094d\u092f\u093e": 2959,
  "\u2581Truth": 2960,
  "\u2581\u09b8\u09c3\u09b7\u09cd\u099f\u09bf": 2961,
  "\u2581\u0648\u067d\u0646": 2962,
  "\u09b2\u09c8": 2963,
  "\u2581offer": 2964,
  "\u2581large": 2965,
  "\u2581stay": 2966,
  "\u0aa6": 2967,
  "\u2581gift": 2968,
  "\u2581\u09b8\u09ae\u09b8\u09cd\u09af\u09be": 2969,
  "\u2581\u0aab\u0abe\u0a87\u0ab2": 2970,
  "\u2581else": 2971,
  "8": 2972,
  "\u062a\u0648": 2973,
  "\u0b33": 2974,
  "\u2581destroy": 2975,
  "\u2581\u0aaa\u0a9b\u0ac0": 2976,
  "\u2581\u09a6\u09cd\u09ac\u09be\u09b0\u09be": 2977,
  "\u2581\u092d\u0930": 2978,
  "\u2581slave": 2979,
  "\u2581\u0a2c\u0a3e\u0a05\u0a26": 2980,
  "\u2581\u0a9b\u0ac0\u0a8f": 2981,
  "\u0622\u0633\u0645\u0627\u0646\u0648\u06ba": 2982,
  "\u2581\u0631\u062d\u0645": 2983,
  "\u2581matters": 2984,
  "\u2581\u201d?": 2985,
  "\u2581p": 2986,
  "\u2581\u092e\u093e\u0930\u094d\u0917": 2987,
  "\u2581L": 2988,
  "\u2581Password": 2989,
  "\u2581theme": 2990,
  "\u0905": 2991,
  "\u2581gelo": 2992,
  "\u2581\u09b8\u0982\u0996\u09cd\u09af\u09be": 2993,
  "\u2581priests": 2994,
  "\u0aa8\u0abe\u0a82": 2995,
  "\u2581\u0daf\u0dd9\u0dba\u0d9a\u0dca": 2996,
  "\u2581\u0648\u068f\u0648": 2997,
  "\u2581\u09ae": 2998,
  "\u0923\u0940": 2999,
  "\u2581month": 3000,
  "\u2581\u06f1": 3001,
  "\u2581\u0917\u0941\u0923": 3002,
  "\u2581\u0997": 3003,
  "\u2581accepted": 3004,
  "\u2581\u0628\u0633": 3005,
  "ski": 3006,
  "\u2581\u0627\u06cc\u0633\u06cc": 3007,
  "\u2581\u092f\u0939\u094b\u0935\u093e\u091a\u094d\u092f\u093e": 3008,
  "\u09ab": 3009,
  "\u2581pane": 3010,
  "\u2581patient": 3011,
  "\u2581General": 3012,
  "\u093e\u0924\u0940\u0932": 3013,
  "\u0aae\u0abe\u0a82\u0aa5\u0ac0": 3014,
  "\u2581\u0926\u0942\u0930": 3015,
  "\u2581fully": 3016,
  "\u2581suffering": 3017,
  "\u0a32\u0a40": 3018,
  "\u2581table": 3019,
  "\u2581\u0645\u0639\u0644\u0648\u0645": 3020,
  "\u2581everyone": 3021,
  "\u2581Pavlo": 3022,
  "\u2581\u0905\u092d\u093f\u0932\u0947\u0916": 3023,
  "\u2581Na": 3024,
  "\u2581\u09a6": 3025,
  "\u2581priest": 3026,
  "\u2581\u091a\u092f\u0928\u093f\u0924": 3027,
  "\u258121": 3028,
  "\u2581{0}": 3029,
  "\u2581attention": 3030,
  "ur": 3031,
  "\u2581\u068a\u0684\u0648": 3032,
  "\u2581\u0a95\u0ab0\u0ac7": 3033,
  "\u2581messengers": 3034,
  "\u0947\u0932": 3035,
  "\u2581\u091c\u093e\u0924\u093e": 3036,
  "\u2581\u0a15\u0a30\u0a28\u0a3e": 3037,
  "\u2581savorhe": 3038,
  "\u0a97": 3039,
  "\u2581\u0633\u062f\u0627\u0626\u064a\u0646": 3040,
  "\u2581\u0916\u0942\u092a": 3041,
  "\u0abe\u0a88": 3042,
  "\u2581\u0631\u06c1\u06cc\u06ba": 3043,
  "\u2581Right": 3044,
  "\u2581Unto": 3045,
  "\u2581\u062c\u0627\u0621": 3046,
  "\u2581enemy": 3047,
  "\u2581\u0d9a\u0dbb\u0db1\u0dca\u0db1\u0dda": 3048,
  "\u2581special": 3049,
  "\u2581months": 3050,
  "\u2581\u0641\u0631\u0645\u0627\u06cc\u0627": 3051,
  "\u2581\u0db6\u0dbd\u0db1\u0dca\u0db1": 3052,
  "\u2581\u0b38\u0b2e\u0b38\u0b4d\u0b24": 3053,
  "\u2581dikhlia": 3054,
  "\u2581\u0d92\u0dad\u0dca": 3055,
  "\u2581\u067e\u0627\u06a9": 3056,
  "\u2581taste": 3057,
  "\u2581enemies": 3058,
  "\u2581\u0628\u0627\u067e": 3059,
  "\u0940\u0924": 3060,
  "\u2581\u0913\u0930": 3061,
  "\u2581born": 3062,
  "\u2581\u0db8": 3063,
  "\u2581\u0b15\u0b3e\u0b30\u0b4d\u0b2f\u0b4d\u0b5f": 3064,
  "\u2581\u0915\u094d\u092f\u094b\u0902\u0915\u093f": 3065,
  "\u2581\u092e\u093e\u0930": 3066,
  "\u2581\u096c": 3067,
  "\u2581dine": 3068,
  "\u2581Well": 3069,
  "\u0b24\u0b3e": 3070,
  "\u2581\u09a4\u09cb\u09ae\u09be\u09b0": 3071,
  "ma": 3072,
  "\u2581\u0646\u0627": 3073,
  "\u2581\u0646\u0635\u06cc\u062d\u062a": 3074,
  "\u2581\u0a30\u0a39\u0a47": 3075,
  "\u2581\u09af\u0996\u09a8": 3076,
  "\u2581\u099b\u09bf\u09b2": 3077,
  "\u2581configuration": 3078,
  "\u0915\u094b": 3079,
  "\u2581\u0d91\u0d9a\u0dca\u0d9a": 3080,
  "\u0924\u094d\u0930": 3081,
  "\u2581\u09b8\u0995\u09b2\u09cb": 3082,
  "\u2581Other": 3083,
  "\u2581\u0645\u0646\u06be\u0646\u062c": 3084,
  "\u2581\u0d9a\u0dc5\u0dcf": 3085,
  "\u2581selection": 3086,
  "\u2581\u062d\u0631\u0627\u0645": 3087,
  "\u0627\u06d2": 3088,
  "\u2581\u091c\u093e\u0909": 3089,
  "\u0646\u062f\u0648": 3090,
  "\u2581bar": 3091,
  "\u2581till": 3092,
  "\u2581\u0938\u0902\u092a\u0930\u094d\u0915": 3093,
  "\u2581\u0926\u094d\u0935\u093e\u0930\u093e": 3094,
  "\u0da7\u0dca": 3095,
  "\u09ac\u09be\u09b0": 3096,
  "\u06bb\u06be\u0627\u0631": 3097,
  "\u2581Does": 3098,
  "\u2581\u06af\u06be\u0631\u0646\u062f\u0648": 3099,
  "\u2581\u091c\u0940": 3100,
  "\u0628\u0631": 3101,
  "\u09be\u09b0": 3102,
  "\u2581Click": 3103,
  "\u2581\u09aa\u09c3\u09b7\u09cd\u09a0\u09be": 3104,
  "\u0940\u092f": 3105,
  "\u2581audio": 3106,
  "\u2581fulfilled": 3107,
  "\u2581\u0aae": 3108,
  "\u2581valid": 3109,
  "\u2581\u0daf\u0dd9\u0dc0\u0dd2\u0d9c\u0dda": 3110,
  "\u2581unless": 3111,
  "\u2581form": 3112,
  "\u2581\u0628\u0627\u0631": 3113,
  "\u2581\u0a39\u0a4b\u0a0f": 3114,
  "=": 3115,
  "\u2581\u092c\u094b\u0932": 3116,
  "di": 3117,
  "\u2581\u0938\u094d\u0925\u093f\u0924\u093f": 3118,
  "\u2581Jacob": 3119,
  "\u06c1\u0648\u06ba": 3120,
  "\u2581\u0a2a": 3121,
  "\u2581Greek": 3122,
  "\u2581white": 3123,
  "\u2581\u06aa\u06be\u0699\u064a": 3124,
  "\u2581\u092e\u094d\u0939\u091f\u0932\u0947": 3125,
  "\u092e\u093e\u0928": 3126,
  "\u2581loved": 3127,
  "\u2581\u0d91": 3128,
  "\u2581James": 3129,
  "\u0989": 3130,
  "\u2581drive": 3131,
  "\u2581\u0628\u0639\u0636": 3132,
  "\u2581\u0b38": 3133,
  "\u2581speech": 3134,
  "\u2581\u09a4\u09cd\u09f0\u09c1\u099f\u09bf": 3135,
  "\u2581\u0905\u0936\u0940": 3136,
  "\u2581\u0686\u06b1\u064a": 3137,
  "\u2581ready": 3138,
  "\u2581\u0915\u094b\u0928\u094b": 3139,
  "\u2581\u0939\u0942\u0901": 3140,
  "\u2581brethren": 3141,
  "\u0932\u0902": 3142,
  "\u2581Law": 3143,
  "\u2581\u0924\u0941\u092e\u094d\u0939\u0947\u0902": 3144,
  "\u2581Home": 3145,
  "\u0921\u0940": 3146,
  "\u2581\u0935\u093f\u0915\u0932\u094d\u092a": 3147,
  "\u2581avena": 3148,
  "\u2581lestar": 3149,
  "ation": 3150,
  "\u2581moves": 3151,
  "\u098f": 3152,
  "\u2581\u09b9\u09ac": 3153,
  "\u0646\u06cc": 3154,
  "\u2581SAW": 3155,
  "\u2581\u0b30": 3156,
  "\u2581souls": 3157,
  "\u2581thanks": 3158,
  "leski": 3159,
  "\u2581Saul": 3160,
  "\u2581\u062f\u0646\u064a\u0627": 3161,
  "\u2581\u0dc0\u0dd6": 3162,
  "\u2581third": 3163,
  "\u2581\u0ab8": 3164,
  "\u2581\u0909\u0928\u0915\u0940": 3165,
  "\u2581warning": 3166,
  "\u2581ancient": 3167,
  "\u0ac2": 3168,
  "\u2581bezexa": 3169,
  "\u2581phenav": 3170,
  "\u0920": 3171,
  "\u2581\u0644\u06af\u06d2": 3172,
  "\u2581effect": 3173,
  "\u2581\u09e8": 3174,
  "\u2581\u0b2a": 3175,
  "\u2581Come": 3176,
  "\u0a28\u0a3e": 3177,
  "\u258112:": 3178,
  "\u2581Sa": 3179,
  "\u2581\u0627\u062c\u0631": 3180,
  "\u2581\u0a95\u0ac0": 3181,
  "\u2581\u0d85\u0db4\u0dda": 3182,
  "\u2581bread": 3183,
  "\u2581Timothy": 3184,
  "\u2581\u0906\u091c\u094d\u091e\u093e": 3185,
  "\u2581\u0633\u06a9\u062a\u0627": 3186,
  "\u2581Children": 3187,
  "\u2581\u0b28\u0b41\u0b39\u0b01": 3188,
  "\u2581Brasero": 3189,
  "\u2581\u0641": 3190,
  "\u2581\u06af\u0646\u0627\u06c1": 3191,
  "\u0938\u0940": 3192,
  "ter": 3193,
  "\u2581equal": 3194,
  "\u0dab": 3195,
  "\u2581serving": 3196,
  "\u2581\u0622\u064a\u0648": 3197,
  "\u2581\u09a8\u09bf\u09f0\u09cd\u09ac\u09be\u099a\u09bf\u09a4": 3198,
  "\u2581vorbi": 3199,
  "\u2581United": 3200,
  "\u2581report": 3201,
  "\u2581\u0daf\u0dd9\u0db1\u0dca\u0db1": 3202,
  "\u2581hast": 3203,
  "\u2581sister": 3204,
  "\u2581\u092e\u0941": 3205,
  "\u2581\u0939\u094b\u0924\u094b": 3206,
  "\u2581\u0916\u093e\u0932\u0940": 3207,
  "\u09b8\u09be": 3208,
  "\u2581Proverbs": 3209,
  "\u0dbb\u0dd4": 3210,
  "\u2581Good": 3211,
  "\u2581\u0628\u0646": 3212,
  "\u06cc\u0648\u06ba": 3213,
  "\u2581\u0a17\u0a08": 3214,
  "\u0aac": 3215,
  "\u2581\u09a0\u09bf\u0995\u09a8\u09be": 3216,
  "\u2581\u067f\u064a\u0644": 3217,
  "\u2581allowed": 3218,
  "\u2581difficult": 3219,
  "\u2581\u06a9\u0641\u0631": 3220,
  "\u2581POP": 3221,
  "\u2581hide": 3222,
  "\u2581\u0d85\u0db4": 3223,
  "\u2581gain": 3224,
  "\u2581\u0a9a\u0abf\u0aa4\u0acd\u0ab0": 3225,
  "\u2581\u09a8\u09cb\u09f1\u09be\u09f0\u09bf": 3226,
  "\u2581spoken": 3227,
  "\u2581rejected": 3228,
  "\u2581\u0a07\u0a71\u0a15": 3229,
  "\u0ab0\u0acd": 3230,
  "\u2581\u0a1c\u0a40": 3231,
  "\u2581build": 3232,
  "\u2581everlasting": 3233,
  "\u0921\u093c": 3234,
  "\u2581\u092f\u0926\u093f": 3235,
  "\u2581\u091a\u0941\u0928\u0942": 3236,
  "\u2581While": 3237,
  "\u2581\u091c\u093f\u0938": 3238,
  "\u2581\u09a4\u09cb": 3239,
  "\u2581afraid": 3240,
  "\u2581names": 3241,
  "\u2581longer": 3242,
  "\u2581\u0930\u0902\u0917": 3243,
  "\u06a9\u06cc": 3244,
  "\u06cc\u0646": 3245,
  "\u2581\u092f\u0947\u0936\u0942\u0928\u0947": 3246,
  "\u2581started": 3247,
  "\u2581\u092d\u093e\u0937\u093e": 3248,
  "\u2581perhaps": 3249,
  "\u2581\u0924\u0941\u091d\u094d\u092f\u093e": 3250,
  "\u2581\u0a28": 3251,
  "\u2581occurred": 3252,
  "\u2581\u0dc3\u0db3\u0dc4\u0dcf": 3253,
  "\u2581Line": 3254,
  "\u2581\u0909\u0924\u094d\u0924\u0930": 3255,
  "\u2581\u09ae\u09c1\u099b\u09c7": 3256,
  "\u2581\u09a6\u09bf\u09a8": 3257,
  "\u0a32\u0a3e": 3258,
  "\u0dad\u0dd4": 3259,
  "\u2581mouth": 3260,
  "\u2581\u0648\u064a\u0646\u062f\u0627": 3261,
  "\u2581\u062c\u0627\u062a\u06d2": 3262,
  "\u0aa4\u0ac0": 3263,
  "\u2581Next": 3264,
  "\u0631\u06cc": 3265,
  "\u2581sama": 3266,
  "\u2581\u0a35": 3267,
  "\u0648\u0633\u0649": 3268,
  "\u2581\u0a9c\u0acb\u0a88\u0a8f": 3269,
  "\u2581\u0b2d\u0b3e\u0b2c\u0b30\u0b47": 3270,
  "\u2581working": 3271,
  "\u2581Consider": 3272,
  "\u2581\u0905\u0939\u093e\u0901": 3273,
  "\u2581\u0a9b\u0acb": 3274,
  "ke": 3275,
  "\u2581\u0634\u0631\u064a\u06aa": 3276,
  "\u2581unknown": 3277,
  "\u093e\u0902\u091a\u093e": 3278,
  "\u2581likely": 3279,
  "\u2581\u0db8\u0dda\u0d9a": 3280,
  "\u2581darkness": 3281,
  "\u2581\u06a9\u0627\u0641\u0631\u0648\u06ba": 3282,
  "All": 3283,
  "\u2581\u0995\u09f0\u09cb\u0981\u09a4\u09c7": 3284,
  "\u2581provision": 3285,
  "\u2581situation": 3286,
  "\u0631\u064a": 3287,
  "\u2581\u0916\u094d\u0930\u093f\u0938\u094d\u0924\u0940": 3288,
  "9": 3289,
  "\u2581lived": 3290,
  "\u2581test": 3291,
  "\u2581\u0628\u06bb\u0627\u064a\u0648": 3292,
  "\u2581\u062c\u0627\u0646\u062a\u06d2": 3293,
  "\u0acd\u0aaf\u0abe": 3294,
  "\u2581\u0aa8\u0ab9\u0abf": 3295,
  "\u2581\u0648\u0639\u062f\u06c1": 3296,
  "\u2581\u06aa\u0631\u064a\u0648\u0646": 3297,
  "\u2581faces": 3298,
  "\u2581fast": 3299,
  "\u2581\u0a38\u0a2e\u0a47\u0a02": 3300,
  "\u2581\u0a2a\u0a3f\u0a06\u0a30": 3301,
  "\u2581\u0622\u062c": 3302,
  "\u2581chief": 3303,
  "\u2581\u0a2e": 3304,
  "\u2581similar": 3305,
  "\u0932\u0947\u0932": 3306,
  "\u2581\u0627\u062e\u062a\u06cc\u0627\u0631": 3307,
  "\u2581\u0915\u0941": 3308,
  "\u2581kal": 3309,
  "\u2581\u06be\u0646\u068c": 3310,
  "\u2581\u0905\u0938\u0932\u0947\u0932\u094d\u092f\u093e": 3311,
  "\u0ab3": 3312,
  "\u2581rain": 3313,
  "\u2581rich": 3314,
  "\u258124": 3315,
  "\u2581\u0686\u06b1\u0627\u0626\u064a": 3316,
  "\u2581\u0938\u0942\u091a\u0928\u093e": 3317,
  "\u2581presence": 3318,
  "\u2581based": 3319,
  "\u093f\u0902\u0917": 3320,
  "\u2581\u0939": 3321,
  "andel": 3322,
  "\u2581nas": 3323,
  "\u0636": 3324,
  "\u2581married": 3325,
  "\u2581\u0686\u0627\u06c1\u06d2": 3326,
  "\u2581Remember": 3327,
  "\u2581v": 3328,
  "\u2581\u0a1a\u0a3e\u0a39\u0a40\u0a26\u0a3e": 3329,
  "\u2581\u0628\u0631\u0627\u0628\u0631": 3330,
  "\u2581Today": 3331,
  "\u2581patience": 3332,
  "\u2581measure": 3333,
  "\u2581seed": 3334,
  "\u2581object": 3335,
  "\u2581operation": 3336,
  "\u2581\u0b28\u0b3f\u0b30\u0b4d\u0b2e\u0b3e\u0b23": 3337,
  "\u2581Information": 3338,
  "\u2581hidden": 3339,
  "\u2581\u0930\u0938\u0942\u0932": 3340,
  "\u2581\u091d\u093e\u0932\u0947": 3341,
  "\u2581\u0dba\u0dda\u0dc3\u0dd4\u0dc3\u0dca": 3342,
  "\u2581\u0645\u0646\u062c\u06be\u0627\u0626\u0646": 3343,
  "\u2581status": 3344,
  "\u0631\u0627": 3345,
  "he": 3346,
  "\u2581running": 3347,
  "\u2581\u0628\u062e\u0634\u0634": 3348,
  "\u2581\u06aa\u064a\u0631": 3349,
  "\u0db1\u0dcf": 3350,
  "\u2581\u09aa\u09cd\u09b0": 3351,
  "\u2581\u092a\u094d\u0930\u0924\u094d\u092f\u0947\u0915": 3352,
  "\u2581\u0d8b": 3353,
  "\u2581palpale": 3354,
  "\u2581viasta": 3355,
  "\u0db1\u0dda": 3356,
  "nge": 3357,
  "\u2581\u0628\u062f\u0644\u0648": 3358,
  "\u092a\u093e": 3359,
  "\u2581justice": 3360,
  "\u2581\u0926\u0947\u0936": 3361,
  "\u2581\u09a4\u09be\u0981\u09b0": 3362,
  "\u2581\u0634\u064a\u0637\u0627\u0646": 3363,
  "\u0901": 3364,
  "\u06a9\u064a\u0646": 3365,
  "\u2581f": 3366,
  "\u0938\u093e\u0920\u0940": 3367,
  "\u2581\u0633\u06cc": 3368,
  "\u2581\u067e\u068c\u0631\u064a": 3369,
  "\u0633\u06cc": 3370,
  "\u0913\u0902": 3371,
  "\u2581laid": 3372,
  "\u0633\u0646\u062f\u064a\u0646": 3373,
  "\u2581rivers": 3374,
  "\u2581tidings": 3375,
  "\u2581\u0b2a\u0b4d\u0b30\u0b24\u0b3f\u0b1b\u0b2c\u0b3f": 3376,
  "\u2581thinking": 3377,
  "\u2581Chile": 3378,
  "\u2581Work": 3379,
  "\u2581\u067f\u064a\u0646\u062f\u0648": 3380,
  "\u2581\u0631\u0648\u0632\u064a": 3381,
  "\u2581blessing": 3382,
  "\u2581grow": 3383,
  "\u2581\u0d9a\u0dd2\u0dbb\u0dd3\u0db8\u0da7": 3384,
  "ment": 3385,
  "ne": 3386,
  "\u2581school": 3387,
  "\u2581problem": 3388,
  "\u2581\u0995\u09a5\u09be": 3389,
  "\u0a17": 3390,
  "\u2581cried": 3391,
  "\u2581\u091c\u0930": 3392,
  "\u2581\u0986\u09a8": 3393,
  "\u2581\u0995\u09be\u099c": 3394,
  "\u2581area": 3395,
  "\u2581wants": 3396,
  "\u2581World": 3397,
  "\u09be\u09af\u09bc": 3398,
  "\u067e\u0627\u06bb": 3399,
  "\u2581considered": 3400,
  "\u2581\u0a17\u0a0f": 3401,
  "\u2581\u0a2e\u0a48\u0a28\u0a42\u0a70": 3402,
  "\u2581\u0633\u0627\u0645\u0646\u06d2": 3403,
  "\u2581brings": 3404,
  "\u2581active": 3405,
  "\u2581\u06a9\u0627\u0646\u0626\u0646": 3406,
  "\u0b2f": 3407,
  "\u2581\u062e": 3408,
  "ever": 3409,
  "\u0902\u091f": 3410,
  "\u0926\u093e\u0930": 3411,
  "\u2581\u0dc0\u0dd2\u0dba": 3412,
  "\u2581\u0628\u0646\u0627\u06cc\u0627": 3413,
  "\u2581\u0910\u0938\u0947": 3414,
  "\u2581looking": 3415,
  "\u2581especially": 3416,
  "\u2581preach": 3417,
  "\u2581\u0634\u06cc\u0637\u0627\u0646": 3418,
  "\u0db1\u0dba": 3419,
  "\u2581Path": 3420,
  "\u2581Settings": 3421,
  "\u2581\u0a1c\u0a3e\u0a23": 3422,
  "\u09c0\u09af\u09bc": 3423,
  "And": 3424,
  "\u2581values": 3425,
  "\u0646\u06af": 3426,
  "\u2581seeking": 3427,
  "\u0987\u09a8": 3428,
  "\u2581Hebrew": 3429,
  "\u2581HTML": 3430,
  "\u2581comfort": 3431,
  "\u2581\u0938\u0930\u094d\u0935\u0930": 3432,
  "\u2581\u062e\u0628\u0631\u062f\u0627\u0631": 3433,
  "\u2581\u062c\u06af\u06c1": 3434,
  "\u2581uni": 3435,
  "\u2581\u0648\u0627\u0631\u0624": 3436,
  "\u0aab": 3437,
  "\u0aa5": 3438,
  "\u2581\u06a9\u0626\u06d2": 3439,
  "\u2581\u0a38\u0a3e\u0a30\u0a47": 3440,
  "\u2581Scripture": 3441,
  "\u2581\u09b8\u09cd\u09a5\u09be\u09a8": 3442,
  "\u06aa\u064a": 3443,
  "\u2581gathered": 3444,
  "\u091c\u0940": 3445,
  "\u2581\u0938\u0940": 3446,
  "\u2581\u06c1\u0648\u062a\u06d2": 3447,
  "doers": 3448,
  "\u2581\u092e\u0928\u0941\u0937\u094d\u092f": 3449,
  "\u2581Certificate": 3450,
  "\u2581sisters": 3451,
  "\u2581Clear": 3452,
  "\u2581Take": 3453,
  "\u0915\u093e\u0930": 3454,
  "\u093e\u0902\u091a\u094d\u092f\u093e": 3455,
  "\u2581\u0a35\u0a3f\u0a71\u0a1a\u0a4b\u0a02": 3456,
  "\u2581pages": 3457,
  "\u2581\u0909\u0926\u093e\u0939\u0930\u0923": 3458,
  "\u2581Play": 3459,
  "ad": 3460,
  "\u2581x": 3461,
  "\u2581certificate": 3462,
  "\u2581\u0915\u090f\u0932": 3463,
  "\u2581\u0915\u094d\u092f\u094b\u0902": 3464,
  "\u2581\u0d94\u0db6\u0da7": 3465,
  "\u2581\u0d87\u0dba\u0dd2": 3466,
  "\u2581permission": 3467,
  "\u0dba\u0da7": 3468,
  "\u09be\u09f0": 3469,
  "\u2581Tume": 3470,
  "\u2581bezex": 3471,
  "\u0d9a\u0dcf": 3472,
  "\u0964\"": 3473,
  "\u2581further": 3474,
  "\u2581inspired": 3475,
  "\u06be\u0631": 3476,
  "\u2581\u0ab0\u0a82\u0a97": 3477,
  "\u2581\u0647": 3478,
  "\u2581\u0d9a": 3479,
  "\u092a\u094d\u0930": 3480,
  "\u2581\u06a9\u0627\u0641\u0631": 3481,
  "\u2581\u0d9a\u0dad\u0dcf": 3482,
  "\u2581\u09ae\u09be": 3483,
  "\u2581associate": 3484,
  "\u2581J": 3485,
  "\u2581\u0aae\u0abe\u0a82": 3486,
  "\u2581installed": 3487,
  "\u2581\u0645\u0624\u0645\u0646": 3488,
  "\u2581\u0d9c\u0db1\u0dca\u0db1": 3489,
  "\u2581\u0627\u0644\u0633\u0644\u0627\u0645": 3490,
  "\u2581\u0645\u0633\u06cc\u062d": 3491,
  "\u2581\u0627\u0646\u0633\u0627\u0646": 3492,
  "\u2581Make": 3493,
  "\u2581\u09b9\u09b2": 3494,
  "\u2581stood": 3495,
  "\u2581\u091c\u093e\u0924\u0947": 3496,
  "\u0dc4\u0dd2": 3497,
  "\u2581pure": 3498,
  "\u09b2\u09cb": 3499,
  "\u06a9\u064a": 3500,
  "\u0b07": 3501,
  "\u2581\u0b38\u0b2e\u0b5f\u0b30\u0b47": 3502,
  "\u2581firm": 3503,
  "\u2581\u0645\u062f\u062f\u06af\u0627\u0631": 3504,
  "\u2581\u0985\u09a8\u09cd\u09af": 3505,
  "\u2581believing": 3506,
  "\u2581\u0915\u0948\u0938\u0947": 3507,
  "\u0936\u093e": 3508,
  "\u0995\u09be\u09b0\u09c0": 3509,
  "\u2581shows": 3510,
  "\u093e\u0902\u0924": 3511,
  "\u2581Although": 3512,
  "\u2581Forgiving": 3513,
  "Muhammad": 3514,
  "\u2581ilo": 3515,
  "\u2581Server": 3516,
  "\u2581\u0627\u0644": 3517,
  "\u2581itself": 3518,
  "\u2581Just": 3519,
  "\u2581W": 3520,
  "\u09ae\u09be\u09a8": 3521,
  "\u2581clean": 3522,
  "Our": 3523,
  "\u2581\u09af\u09be\u09af\u09bc": 3524,
  "format": 3525,
  "\u2581''": 3526,
  "\u2581\u0932\u093e": 3527,
  "\u2581\u0648\u064a\u0646\u062f\u0648": 3528,
  "\u2581\u09aa\u09f0\u09bf\u09ac\u09f0\u09cd\u09a4\u09a8": 3529,
  "ta": 3530,
  "\u2581amar": 3531,
  "\u2581avile": 3532,
  "ka": 3533,
  "\u2581\u0909\u0938\u0915\u093e": 3534,
  "\u2581\u068f\u0626\u064a": 3535,
  "\u0a1a": 3536,
  "\u2581deleted": 3537,
  "\u2581calls": 3538,
  "\u2581\u0906\u092a\u0932\u093e": 3539,
  "\u2581Which": 3540,
  "\u2581\u0a39\u0a4b\u0a07\u0a06": 3541,
  "\u2581\u0906\u092a\u0932\u0947": 3542,
  "\u2581\u092a\u093e\u0928\u093e\u0902\u0935\u0930": 3543,
  "\u2581\u062f\u0631\u0645\u06cc\u0627\u0646": 3544,
  "\u2581mentioned": 3545,
  "\u2581nashti": 3546,
  "\u2581lay": 3547,
  "\u2581Send": 3548,
  "\u25814.": 3549,
  "\u2581\u0a06\u0a2a": 3550,
  "\u2581including": 3551,
  "\u2581burning": 3552,
  "\u2581showed": 3553,
  "\u2581\u09ab": 3554,
  "\u06a9\u0627": 3555,
  "\u0939\u093e": 3556,
  "\u2581\u0995\u09be\u09f0\u09cd\u09af\u09cd\u09af": 3557,
  "\u0906": 3558,
  "\u2581\u0641\u06cc\u0635\u0644\u06c1": 3559,
  "\u0db8\u0dcf": 3560,
  "\u2581severe": 3561,
  "\u2581User": 3562,
  "\u2581\u0b2e\u0b47\u0b32": 3563,
  "\u2581Petri": 3564,
  "\u2581\u09ac\u09c8\u09b6\u09bf\u09b7\u09cd\u099f\u09cd\u09af": 3565,
  "\u2581c": 3566,
  "\u2581\u0924\u093e": 3567,
  "\u0645\u06cc": 3568,
  "\u067b\u0627\u0646\u06be\u0646": 3569,
  "\u2581\u0a32\u0a4b\u0a5c": 3570,
  "\u2581public": 3571,
  "\u2581\u09ac\u09c7": 3572,
  "\u2581\u0906\u0932\u093e": 3573,
  "\u2581messenger": 3574,
  "\u2581\u0645\u0631": 3575,
  "quot": 3576,
  "\u2581\u0915\u0930\u0942\u0928": 3577,
  "\u2581\u067e\u0627\u0646\u06cc": 3578,
  "\u2581chachimos": 3579,
  "\u2581\u0a2c": 3580,
  "\u2581deliver": 3581,
  "\u2581regarding": 3582,
  "\u093f\u092f\u093e": 3583,
  "\u0644\u06aa": 3584,
  "\u258110:": 3585,
  "\u2581commit": 3586,
  "\u2581\u09a8\u09a5\u09bf\u09aa\u09a4\u09cd\u09f0": 3587,
  "\u2581\u0907\u091a\u094d\u091b\u093e": 3588,
  "\u2581safe": 3589,
  "\u2581rejoice": 3590,
  "\u2581\u092c\u0947": 3591,
  "\u2581\u0a9c\u0acd\u0aaf\u0abe\u0ab0\u0ac7": 3592,
  "\u2581offering": 3593,
  "\u2581room": 3594,
  "\u2581\u0648\u062c\u06c1": 3595,
  "\u2581Screen": 3596,
  "\u2581manushen": 3597,
  "\u2581\u062e\u0631\u0686": 3598,
  "\u2581straight": 3599,
  "\u0641\u0631": 3600,
  "\u0db4\u0dd4": 3601,
  "\u2581\u0aa4\u0ac7\u0aae": 3602,
  "\u2581screen": 3603,
  "\u2581glad": 3604,
  "\u09f0\u09bf": 3605,
  "\u2581rule": 3606,
  "\u2581\u09b6": 3607,
  "\u2581\u092a\u0930\u0902\u0924\u0941": 3608,
  "\u2581Web": 3609,
  "\u2581states": 3610,
  "\u2581\u0db1\u0ddc": 3611,
  "\u2581attitude": 3612,
  "\u2581flow": 3613,
  "\u2581gold": 3614,
  "ph": 3615,
  "\u2581aware": 3616,
  "dia": 3617,
  "\u2581fill": 3618,
  "\u2581\u0a1c\u0a3c\u0a3f\u0a06\u0a26\u0a3e": 3619,
  "\u2581\u0aaf\u0abe\u0aa6\u0ac0": 3620,
  "\u2581U": 3621,
  "\u0dc0\u0dbd\u0da7": 3622,
  "\u2581phenel": 3623,
  "\u2581\u062d\u0627\u0636\u0631": 3624,
  "\u09bf\u09af\u09bc\u09be": 3625,
  "\u2581Since": 3626,
  "\u2581access": 3627,
  "\u2581Judah": 3628,
  "\u2581exist": 3629,
  "com": 3630,
  "\u2581\u06c1\u0627\u06ba": 3631,
  "\u2581background": 3632,
  "\u2581\u06be\u0631": 3633,
  "\u2581shal": 3634,
  "\u2581sick": 3635,
  "\u2581\u09ac\u09bf\u0995\u09b2\u09cd\u09aa": 3636,
  "ge": 3637,
  "\u2581gardens": 3638,
  "\u0a5c": 3639,
  "\u093e\u0902\u091a\u0940": 3640,
  "\u2581plugin": 3641,
  "\u258122": 3642,
  "\u2581preview": 3643,
  "\u0937": 3644,
  "\u2581\u0d94\u0dc0\u0dca": 3645,
  "\u2581beyond": 3646,
  "\u2581standing": 3647,
  "\u2581speaking": 3648,
  "\u2581Chi": 3649,
  "\u2581\u0628\u0686": 3650,
  "\u2581\u0916\u094b\u0932\u0942": 3651,
  "\\.": 3652,
  "\u2581\u09b2": 3653,
  "\u2581\u0938\u092d\u0940": 3654,
  "\u2581desktop": 3655,
  "\u2581\u0915\u0930\u0924\u093e\u0924": 3656,
  "\u2581\u0dc3": 3657,
  "0": 3658,
  "\u0938\u094d": 3659,
  "\u2581Luke": 3660,
  "\u2581\u09a8\u09bf\u09af\u09bc\u09c7": 3661,
  "\u2581reject": 3662,
  "\u0d82": 3663,
  "\u2581penge": 3664,
  "\u2581\u0913": 3665,
  "\u09bf\u09af\u09bc\u09c7": 3666,
  "\u2581\u0a24\u0a15": 3667,
  "\u2581\u0926\u093f\u0935\u0938": 3668,
  "\u2581\u0b38\u0b30\u0b4d\u0b2d\u0b30": 3669,
  "\u0a16": 3670,
  "\u25812.": 3671,
  "\u2581daughter": 3672,
  "\u2581\u0631\u06a9": 3673,
  "\u09a8\u09c7": 3674,
  "\u2581\u0a30\u0a3e\u0a1c": 3675,
  "\u092a\u094d\u0930\u092e\u093e\u0923\u0947": 3676,
  "\u2581\u09b8\u09ac": 3677,
  "\u2581lasho": 3678,
  "\u2581pasha": 3679,
  "\u2581\u0d9a\u0dd9\u0db1\u0dd9\u0d9a\u0dca": 3680,
  "\u0611": 3681,
  "\u2581honor": 3682,
  "\u0ab0\u0abe": 3683,
  "\u2581V": 3684,
  "\u2581\u0db8\u0dcf": 3685,
  "\u2581heed": 3686,
  "\u2581\u09aa\u09b0\u09bf\u09ac\u09b0\u09cd\u09a4\u09a8": 3687,
  "\u2581dwell": 3688,
  "\u2581main": 3689,
  "\u2581\u0631\u06a9\u06be\u0627": 3690,
  "\u2581\u0644\u06af\u0627": 3691,
  "\u2581increase": 3692,
  "\u2581\u0dc0\u0dd3": 3693,
  "\u2581\u0dbd\u0dd9\u0dc3": 3694,
  "\u2581\u0daf\u0dda\u0dc0\u0dbd\u0dca": 3695,
  "\u2581\u0932\u0947\u0916": 3696,
  "\u2581\u09b6\u09ac\u09cd\u09a6": 3697,
  "\u2581desh": 3698,
  "\u0923\u094d\u092f\u093e\u0938\u093e\u0920\u0940": 3699,
  "be": 3700,
  "\u0932\u0947\u0932\u094d\u092f\u093e": 3701,
  "\u2581select": 3702,
  "\u2581secure": 3703,
  "mail": 3704,
  "\u093e\u0935\u0947": 3705,
  "\u06cc\u0639\u0646\u06cc": 3706,
  "\u2581disbelieved": 3707,
  "\u2581guard": 3708,
  "\u2581\u09ac\u09b2\u09c7": 3709,
  "\u2581\u0995\u09aa\u09bf": 3710,
  "\u092a\u093e\u0938\u0942\u0928": 3711,
  "\u258111:": 3712,
  "\u2581\u0915\u0942\u091f\u0936\u092c\u094d\u0926": 3713,
  "\u0ac7\u0ab2": 3714,
  "\u2581bari": 3715,
  "\u2581tradia": 3716,
  "\u2581zurales": 3717,
  "\u2581\u0aab\u0acb\u0ab2\u0acd\u0aa1\u0ab0": 3718,
  "\u2581%2$": 3719,
  "\u2581Nay": 3720,
  "\u2581\u096d": 3721,
  "\u2581\u062d\u0627\u0644\u0627\u0646\u06a9\u06c1": 3722,
  "\u2581deal": 3723,
  "\u2581\u0dc0": 3724,
  "\u2581\u062a\u0648\u06a9\u0627\u0646": 3725,
  "\u2581immediately": 3726,
  "\u2581\u0628\u0691\u06d2": 3727,
  "\u2581\u06af\u06be\u0631\u064a": 3728,
  "\u2581Rather": 3729,
  "\u2581\u067e\u06cc\u0686\u06be\u06d2": 3730,
  "\u2581\u0915\u0930\u0923\u0947": 3731,
  "\u2581\u092e\u0926\u0926": 3732,
  "\u2581\u0967\u0966": 3733,
  "\u2581\u0d9a\u0ddc\u0dc4\u0ddc\u0db8\u0daf": 3734,
  "\u0a24\u0a40": 3735,
  "\u2581\u092a\u094d\u0930\u092f\u094b\u0917": 3736,
  "\u2581displayed": 3737,
  "\u2581\u0967\u096b": 3738,
  "\u2581\u0622\u06af": 3739,
  "\u2581regular": 3740,
  "\u2581\u067e\u0648\u0631\u0627": 3741,
  "j": 3742,
  "\u0b2e\u0b4d\u0b2c\u0b3e": 3743,
  "\u2581\u0924\u0941\u0932\u093e": 3744,
  "\u2581seeing": 3745,
  "\u2581\u0905\u092a\u0928\u093e": 3746,
  "\u2581\u0906\u0927\u094d\u092f\u093e\u0924\u094d\u092e\u093f\u0915": 3747,
  "\u2581\u0924\u094d\u092f\u093e\u092e\u0941\u0933\u0947": 3748,
  "\u2581\u0906\u0913\u0930": 3749,
  "\u2581health": 3750,
  "\u2581feelings": 3751,
  "\u2581\u0d91\u0db8": 3752,
  "\u2581\u09ac\u09bf\u09b7\u09af\u09bc": 3753,
  "\u2581Knowing": 3754,
  "\u2581interest": 3755,
  "\u2581refuge": 3756,
  "\u062f\u0627\u0631": 3757,
  "\u0b36": 3758,
  "\u09a5": 3759,
  "\u2581door": 3760,
  "\u2581hundred": 3761,
  "\u2581\u0986\u09aa\u09cb\u09a8\u09be\u09f0": 3762,
  "\u09bf\u0982": 3763,
  "\u2581\u06a9\u06cc\u0633\u06d2": 3764,
  "\u2581\u09af\u09be\u09af\u09bc\u09a8\u09bf": 3765,
  "\u2581divine": 3766,
  "\u2581slot": 3767,
  "\u2581\u0a24\u0a41\u0a39\u0a3e\u0a28\u0a42\u0a70": 3768,
  "\u2581Iovano": 3769,
  "\u2581May": 3770,
  "\u2581\u09aa\u09cd\u09b0\u09a4\u09bf": 3771,
  "\u2581condition": 3772,
  "\u2581\u0b15\u0b30\u0b3f": 3773,
  "\u2581invalid": 3774,
  "\u2581\u0aac": 3775,
  "\u2581\u0645\u0683\u064a\u0648": 3776,
  "\u2581\u0645\u0627\u0631": 3777,
  "\u2581\u0906\u0928\u0902\u0926": 3778,
  "\u2581\u092c\u093e\u0930": 3779,
  "\u2581t": 3780,
  "\u06a9\u06c1": 3781,
  "\u0a05": 3782,
  "\u2581Corinthians": 3783,
  "\u2581\u09b8\u09ae\u09cd\u09ad\u09ac": 3784,
  "\u2581\u0631\u06c1\u0646\u06d2": 3785,
  "\u2581multitude": 3786,
  "\u2581\u0628\u0627\u0626\u0628\u0644": 3787,
  "\u2581\u0a26\u0a3f\u0a32": 3788,
  "\u2581\u0917\u0947\u0932": 3789,
  "\u2581\u090f\u0939\u093f": 3790,
  "\u0b1a": 3791,
  "\u06cc\u0627\u06ba": 3792,
  "\u2581period": 3793,
  "\u2581recompense": 3794,
  "\u2581Like": 3795,
  "\u2581raise": 3796,
  "\u2581\u0627\u06c1\u0644": 3797,
  "\u2581eye": 3798,
  "\u2581knowing": 3799,
  "\u2581\u0633\u0627\u0644": 3800,
  "\u2581\u0926\u0947\u0916": 3801,
  "\u2581Import": 3802,
  "\u2581track": 3803,
  "\u0627\u06ba": 3804,
  "\u2581\u09a8\u09be\u09af\u09be\u09af\u09bc": 3805,
  "\u2581Al": 3806,
  "\u09c2": 3807,
  "\u2581\u092b": 3808,
  "\u2581\u0906\u0923\u0916\u0940": 3809,
  "\u2581\u062c\u0627\u0646\u06d2": 3810,
  "\u092b\u093c": 3811,
  "\u2581\u09ac\u09cd\u09af\u09ac\u09b9\u09c3\u09a4": 3812,
  "\u2581established": 3813,
  "\u2581\u0b21\u0b3f\u0b38\u0b4d\u0b15": 3814,
  "\u2581\u098f\u099f\u09bf": 3815,
  "\u2581\u0995\u09b0\u09c7\u09a8": 3816,
  "\u2581\u09ad": 3817,
  "\u2581ears": 3818,
  "\u2581\u0dc3\u0db3\u0dc4\u0db1\u0dca": 3819,
  "\u2581\u0924\u094d\u092f\u093e\u091a\u093e": 3820,
  "\u2581\u0db6": 3821,
  "\u092a\u0930": 3822,
  "\u2581\u0646\u0642\u0635\u0627\u0646": 3823,
  "\u2581plain": 3824,
  "\u2581\u0936\u0915\u0924": 3825,
  "\u2581Empathy": 3826,
  "\u2581\u0687\u068f\u064a": 3827,
  "\u2581truthful": 3828,
  "\u2581process": 3829,
  "\u2581mangel": 3830,
  "\u2581appear": 3831,
  "\u2581re": 3832,
  "\u0db6": 3833,
  "\u0dba\u0db1\u0dca": 3834,
  "\u0644\u064a": 3835,
  "\u2581Revelation": 3836,
  "\u2581wrath": 3837,
  "\u2581\u0aaa": 3838,
  "\u2581homes": 3839,
  "\u0a3f": 3840,
  "\u2581%1$": 3841,
  "\u2581secret": 3842,
  "\u2581\u0915\u092e": 3843,
  "\u062d\u06aa\u0645\u062a": 3844,
  "\u0dc2": 3845,
  "\u2581\u0a17\u0a71\u0a32\u0a3e\u0a02": 3846,
  "\u25817:": 3847,
  "\u0a41": 3848,
  "\u2581\u0924\u094d\u092f\u093e\u091a\u0940": 3849,
  "\u2581\u0986\u09f0\u09ae\u09cd\u09ad": 3850,
  "\u0627\u0628": 3851,
  "\u0daf\u0dd3": 3852,
  "\u2581\u0aa4\u0ab0\u0ac0\u0a95\u0ac7": 3853,
  "\u2581\u0d9c": 3854,
  "\u06aa\u0648\u0699\u0648": 3855,
  "\u068c": 3856,
  "\u0924\u094d": 3857,
  "\u2581forward": 3858,
  "\u2581\u0b26\u0b30\u0b4d\u0b36\u0b3e\u0b28\u0b4d\u0b24\u0b41": 3859,
  "\u2581\u0b38\u0b2e\u0b5f": 3860,
  "\u2581\u0995\u09c7": 3861,
  "\u0dc0\u0dca": 3862,
  "\u2581eight": 3863,
  "\u0dc0\u0dbd": 3864,
  "\u2581\u0634": 3865,
  "\u2581\u067e\u0627\u06bb\u064a": 3866,
  "\u2581stop": 3867,
  "\u2581response": 3868,
  "\u2581happiness": 3869,
  "\u2581destination": 3870,
  "\u0902\u0921": 3871,
  "\u2581forbidden": 3872,
  "\u2581\u067b\u064a\u0648": 3873,
  "\u0a0f": 3874,
  "\u2581\u0ab2\u0acb\u0a95\u0acb": 3875,
  "\u2581\u092a\u094d\u0930\u092f\u0924\u094d\u0928": 3876,
  "\u2581Location": 3877,
  "\u2581\u0a38\u0a3c\u0a41\u0a30\u0a42": 3878,
  "\u2581\u0a1c\u0a3e\u0a02\u0a26\u0a3e": 3879,
  "\u2581\u067e\u064a\u0621": 3880,
  "\u2581kodolen": 3881,
  "\u0938\u092d": 3882,
  "\u0913": 3883,
  "\u2581host": 3884,
  "\u2581\u092e\u0930": 3885,
  "\u2581prison": 3886,
  "\u2581warn": 3887,
  "soever": 3888,
  "\u2581tried": 3889,
  "\u2581\u067e\u0633\u0646\u062f": 3890,
  "\u2581\u0dc3\u0dd2\u0daf\u0dd4": 3891,
  "\u2581swear": 3892,
  "\u2581sake": 3893,
  "\u2581level": 3894,
  "\u0918": 3895,
  "\u0dc0\u0dda": 3896,
  "\u2581Disc": 3897,
  "\u2581\u0905\u0930\u094d\u0925": 3898,
  "\u2581various": 3899,
  "\u2581\u0631\u0633\u062a\u0648": 3900,
  "\u2581\u06c1\u0627\u062a\u06be": 3901,
  "\u0982": 3902,
  "\u2581connect": 3903,
  "\u2581LDAP": 3904,
  "\u2581\u0985\u0982\u09b6": 3905,
  "\u2581determined": 3906,
  "\u2581\u092c\u093f\u0902\u092c": 3907,
  "\u0935\u0947": 3908,
  "\u2581houses": 3909,
  "\u2581older": 3910,
  "\u2581less": 3911,
  "\u2581carry": 3912,
  "with": 3913,
  "\u0a26\u0a40": 3914,
  "\u2581items": 3915,
  "\u2581\u0645\u0639\u0627\u0641": 3916,
  "\u2581\u0622\u06cc\u0627": 3917,
  "\u2581computer": 3918,
  "\u0daf\u0dcf": 3919,
  "\u2581\u0915\u0930\u0923\u094d\u092f\u093e\u0938\u093e\u0920\u0940": 3920,
  "\u0927": 3921,
  "\u2581\u0ab8\u0ac1\u0aa7\u0ac0": 3922,
  "\u2581\u0938\u0924\u094d\u092f": 3923,
  "\u2581\u092e\u093e": 3924,
  "\u2581powerful": 3925,
  "\u2581spread": 3926,
  "\u2581\u06a9\u0627\u0646\u0626\u0633": 3927,
  "\u09b0\u09bf": 3928,
  "\u2581offline": 3929,
  "\u2581held": 3930,
  "\u2581\u062d\u0633\u0627\u0628": 3931,
  "\u0995\u09be\u09b0": 3932,
  "\u2581Man": 3933,
  "\u2581seem": 3934,
  "\u2581\u0628\u0627\u063a": 3935,
  "\u2581\u0686\u0627\u06c1\u062a\u06d2": 3936,
  "\u0ab2\u0abe": 3937,
  "\u0b23": 3938,
  "\u2581prayed": 3939,
  "\u2581\u0926\u0947\u0935\u093e\u0928\u0947": 3940,
  "\u2581\u092c\u093e\u0939\u0930": 3941,
  "\u2581reminder": 3942,
  "\u2581drom": 3943,
  "\u0646\u062f\u064a": 3944,
  "\u2581\u062e\u0627\u0635": 3945,
  "\u2581town": 3946,
  "ity": 3947,
  "\u2581\u062f\u06cc\u06a9\u06be\u0627": 3948,
  "\u2581cities": 3949,
  "\u2581string": 3950,
  "\u2581ground": 3951,
  "\u2581\u0985\u09a8": 3952,
  "\u2581IMAP": 3953,
  "\u2581security": 3954,
  "\u2581De": 3955,
  "\u2581Colour": 3956,
  "\u2581manushenge": 3957,
  "\u2581\u0ab9\u0aa4\u0abe": 3958,
  "\u2581\u062d\u06a9\u0645\u062a": 3959,
  "\u2581\u0915\u093f\u0924\u0940": 3960,
  "\u2581\u0926\u0941": 3961,
  "\u2581\u0db8\u0dd9\u0db8": 3962,
  "\u2581\u06a9\u0628\u06be\u06cc": 3963,
  "\u2581\u0938\u093e\u0902\u0917\u093f\u0924\u0932\u0947": 3964,
  "\u064a\u0648": 3965,
  "\u2581\u092e\u0917\u0930": 3966,
  "\u2581\u0627\u0646\u0635\u0627\u0641": 3967,
  "\u2581\u0631\u0648\u0632": 3968,
  "\u2581sinners": 3969,
  "\u2581Free": 3970,
  "\u2581manner": 3971,
  "\u2581Get": 3972,
  "\u2581\u09a8\u09bf\u09b0\u09cd\u09ac\u09be\u099a\u09a8": 3973,
  "\u2581\u0916\u093e": 3974,
  "\u2581\u091c\u093f\u0928": 3975,
  "\u2581\u0686\u0648\u0646": 3976,
  "\u2581\u09a6\u09bf\u09af\u09bc\u09c7": 3977,
  "\u2581\u0924\u0930\u0940": 3978,
  "\u2581kerde": 3979,
  "\u0910": 3980,
  "\u2581\u0930": 3981,
  "org": 3982,
  "\u2581Acts": 3983,
  "\u0dd9\u0d9a\u0dca": 3984,
  "\u2581\u09e9": 3985,
  "from": 3986,
  "\u2581\u0932\u0917\u093e": 3987,
  "\u2581Help": 3988,
  "\u2581\u0dc0\u0dd0\u0da9": 3989,
  "\u2581\u068f\u064a\u0648": 3990,
  "\u2581\u0935\u0939\u0940": 3991,
  "\u2581actions": 3992,
  "\u2581lock": 3993,
  "osko": 3994,
  "uria": 3995,
  "\u2581Kodo": 3996,
  "\u2581\u0aac\u0aa4\u0abe\u0ab5\u0acb": 3997,
  "\u2581\u0932\u094b\u0921": 3998,
  "\u2581\u09aa\u09be\u09b0\u09c7": 3999,
  "\u2581States": 4000,
  "\u0691": 4001,
  "\u0d9c\u0dd9\u0db1": 4002,
  "\u2581Had": 4003,
  "\u258110.": 4004,
  "\u067a": 4005,
  "\u0936\u094d": 4006,
  "\u2581\u061b": 4007,
  "\u2581\u0926\u093f\u0932\u093e": 4008,
  "\u2581\u062f\u06cc\u062c\u0626\u06d2": 4009,
  "\u0ab9": 4010,
  "\u2581\u09b9\u09af\u09bc\u09a8\u09bf": 4011,
  "\u0997\u09c1\u09b2\u09cb": 4012,
  "\u2581\u0644\u0639\u0646\u062a": 4013,
  "\u2581Preferences": 4014,
  "\u2581\u06be\u0648\u0646\u062f\u064a": 4015,
  "\u2581\u0a26\u0a3f\u0a71\u0a24\u0a40": 4016,
  "\u2581About": 4017,
  "\u2581destruction": 4018,
  "\u2581languages": 4019,
  "\u2581\u062d\u064a\u0627\u062a\u064a": 4020,
  "\u2581met": 4021,
  "\u2581\u06c1\u0648\u062a\u06cc": 4022,
  "\u2581\u092a\u094d\u0930\u0936\u094d": 4023,
  "\u2581\u0932\u093f\u092f\u0947": 4024,
  "\u2581\u09af\u09bf": 4025,
  "\u0a28\u0a40": 4026,
  "\u2581ago": 4027,
  "\u2581memo": 4028,
  "\u2581pleased": 4029,
  "\u2581\u0935\u0930\u094d\u0937": 4030,
  "\u2581alive": 4031,
  "\u0b3f\u0b15": 4032,
  "\u2581wronged": 4033,
  "\u2581\u09b8\u09be": 4034,
  "\u2581common": 4035,
  "\u2581\u0905\u092d\u094d\u092f\u093e\u0938": 4036,
  "\u2581pel": 4037,
  "\u2581THE": 4038,
  "\u2581Sar": 4039,
  "\u2581protect": 4040,
  "\u258113:": 4041,
  "\u2581\u0915\u0939": 4042,
  "\u0938\u094d\u0925": 4043,
  "\u2581\u09aa\u09c1\u09a8\u09f0": 4044,
  "\u2581\u09aa\u09cd\u09f0\u09be\u09aa\u09cd\u09a4": 4045,
  "\u2581\u0907\u0938\u0915\u0947": 4046,
  "\u2581\u09a6\u09c7\u0996\u09be": 4047,
  "\u258123": 4048,
  "\u0628\u0627": 4049,
  "\u2581appointment": 4050,
  "\u2581\u067d\u0648\u0644\u064a\u0621": 4051,
  "\u2581getting": 4052,
  "\u2581\u0b39\u0b38\u0b4d\u0b24\u0b3e\u0b15\u0b4d\u0b37\u0b30": 4053,
  "\u2581principles": 4054,
  "\u2581\u09a4\u0996\u09a8": 4055,
  "\u2581trying": 4056,
  "\u2581\u0ab6\u0a95\u0ac7": 4057,
  "\u2581moon": 4058,
  "\u2581\u0a95\u0ab0\u0ac0\u0aa8\u0ac7": 4059,
  "\u2581lesa": 4060,
  "\u2581font": 4061,
  "\u2581\u062e\u06cc\u0627\u0644": 4062,
  "\u2581Calendar": 4063,
  "\u2581\u092a\u093f\u0924\u093e": 4064,
  "\u2581added": 4065,
  "\u2581favor": 4066,
  "\u2581Date": 4067,
  "\u2581Command": 4068,
  "\u2581\u0a39\u0a30": 4069,
  "\u2581\u0915\u0930\u0923\u094d\u092f\u093e\u0924": 4070,
  "ai": 4071,
  "\u2581\u067e\u06cc\u0634": 4072,
  "\u2581direction": 4073,
  "\u2581\u0a1c\u0a3c\u0a3f\u0a70\u0a26\u0a17\u0a40": 4074,
  "\u2581weak": 4075,
  "\u2581\u0644\u06cc\u06ba": 4076,
  "\u2581\u092c\u093e": 4077,
  "\u2581\u06a9\u0627\u0626\u0646": 4078,
  "\u2581salvation": 4079,
  "\u0634\u06a9": 4080,
  "ol": 4081,
  "\u093e\u0903": 4082,
  "Y": 4083,
  "\u2581Change": 4084,
  "\u09b9\u09be": 4085,
  "Imp": 4086,
  "J": 4087,
  "\u2581Romans": 4088,
  "\u2581\u062a\u0627\u0626\u064a\u0646": 4089,
  "\u2581u": 4090,
  "\u2581\u0628\u0646\u062f": 4091,
  "--": 4092,
  "\u2581\u0a35\u0a3e\u0a32\u0a47": 4093,
  "\u2581\u062c\u0627\u062a\u06cc": 4094,
  "\u2581\u0a26": 4095,
  "\u2581\u0648\u0683\u064a": 4096,
  "\u2581wind": 4097,
  "\u2581\u0aac\u0a82\u0aa7": 4098,
  "\u2581short": 4099,
  "\u2581Choose": 4100,
  "\u0917\u0940": 4101,
  "\u2581Qur": 4102,
  "\u2581\u0648\u0627\u0646\u06af\u0631": 4103,
  "\u2581Description": 4104,
  "\u2581\u0627\u0646\u06be\u064a": 4105,
  "\u2581letter": 4106,
  "\u0917\u093e": 4107,
  "\u2581clearly": 4108,
  "\u2581link": 4109,
  "\u2581beginning": 4110,
  "\u2581Porme": 4111,
  "\u2581\u0939\u094b\u0928\u0947": 4112,
  "\u2581\u0ab5\u0abf\u0aa8\u0acd\u0aa1\u0acb": 4113,
  "\u0628\u06cc": 4114,
  "\u2581subject": 4115,
  "\u2581hearing": 4116,
  "\u2581\u0dc0\u0dd9\u0dbd\u0dcf": 4117,
  "\u2581thoughts": 4118,
  "\u2581placed": 4119,
  "\u2581\u068f\u06a9\u0648\u0626\u064a": 4120,
  "\u2581\u0d94\u0dc4\u0dd4\u0d9c\u0dda": 4121,
  "\u2581repentance": 4122,
  "\u2581\u0628\u0627\u062a\u0648\u06ba": 4123,
  "\u2581\u0631\u06c1\u0648": 4124,
  "\u2581\u0a2a\u0a4d\u0a30\u0a1a\u0a3e\u0a30": 4125,
  "\u2581Simon": 4126,
  "\u2581\u0926\u0947\u0924\u093e": 4127,
  "\u2581inside": 4128,
  "\u2581\u0633\u0686\u0627": 4129,
  "\u2581Great": 4130,
  "\u2581\u092c\u0928\u093e": 4131,
  "\u2581\u06a9\u0645": 4132,
  "\u092d": 4133,
  "\u2581\u09b8\u0982\u0995\u09cd\u09b0\u09be\u09a8": 4134,
  "\u2581\u062c\u0646\u06c1\u06cc\u06ba": 4135,
  "\u2581\u0b2f\u0b4b\u0b17": 4136,
  "\u2581\u0ab8\u0a95\u0acd\u0ab0\u0abf\u0aaf": 4137,
  "\u2581i": 4138,
  "\u2581individuals": 4139,
  "\u2581Source": 4140,
  "\u2581sat": 4141,
  "\u0dbb\u0dd2\u0dba\u0dcf": 4142,
  "\u093e\u092f\u0932\u093e": 4143,
  "\u2581break": 4144,
  "\u2581\u0d85\u0dad\u0dbb": 4145,
  "\u2581deep": 4146,
  "\u2581\u062f\u0644\u0648\u06ba": 4147,
  "\u0dad\u0dcf": 4148,
  "\u2581\u067f\u064a\u0646\u062f\u0627": 4149,
  "\u2581High": 4150,
  "\u2581decision": 4151,
  "\u2581\u0646\u0634\u0627\u0646\u064a\u0648\u0646": 4152,
  "\u2581\u0995\u09f0\u09cd\u09ae": 4153,
  "\u2581Won": 4154,
  "\u2581\u0ab6\u0a95\u0acd\u0aaf\u0abe": 4155,
  "\u0dd2": 4156,
  "\u2581promises": 4157,
  "\u2581dust": 4158,
  "\u2581anger": 4159,
  "\u2581\u096e": 4160,
  "\u0928\u093f": 4161,
  "\u2581week": 4162,
  "\u2581\u09b9\u09cb\u09f1\u09be": 4163,
  "\u0930\u094b": 4164,
  "\u2581\u0b15\u0b30\u0b3f\u0b2a\u0b3e\u0b30\u0b3f\u0b32\u0b3e": 4165,
  "\u2581\u0aa6\u0ac2\u0ab0": 4166,
  "\u2581zor": 4167,
  "\u0a39\u0a3f": 4168,
  "\u2581gather": 4169,
  "\u2581\u0938\u0947\u0935\u0915": 4170,
  "\u091c\u093e": 4171,
  "\u2581daughters": 4172,
  "\u2581\u09ac\u09be\u09a4\u09bf\u09b2": 4173,
  "\u2581wine": 4174,
  "ske": 4175,
  "\u2581custom": 4176,
  "\u2581\u0a2a\u0a4c\u0a32\u0a41\u0a38": 4177,
  "\u06c1\u06cc": 4178,
  "\u2581\u0db1\u0db8\u0dd4\u0dad\u0dca": 4179,
  "\u2581watch": 4180,
  "\u2581parts": 4181,
  "\u2581\u096f": 4182,
  "\u0daf\u0dd2": 4183,
  "\u2581reached": 4184,
  "\u2581\u0dc0\u0dd9\u0db1": 4185,
  "\u0a30\u0a40": 4186,
  "\u2581\u0d9a\u0dd2\u0dbb\u0dd3\u0db8": 4187,
  "\u2581diela": 4188,
  "\u2581goji": 4189,
  "\u2581\u067b\u068c": 4190,
  "\u2581column": 4191,
  "\u2581\u0644\u0627": 4192,
  "\u2581True": 4193,
  "\u2581record": 4194,
  "\u2581\u06af\u0645\u0631\u0627\u06c1": 4195,
  "\u2581\u0995\u09b0\u09bf": 4196,
  "\u2581\u0a38\u0a3e\u0a21\u0a40": 4197,
  "\u2581dat": 4198,
  "\u2581\u0d94": 4199,
  "\u2581late": 4200,
  "\u2581\u0628\u06be\u0627\u0626\u06cc": 4201,
  "sko": 4202,
  "\u2581\u0aaa\u0acd\u0ab0\u0a95\u0abe\u0ab0": 4203,
  "\u0d9c\u0db1\u0dca\u0db1": 4204,
  "\u2581\u09ae\u09be\u09aa": 4205,
  "\u2581\u0ab0\u0aae\u0aa4": 4206,
  "\u0d9a\u0dd2": 4207,
  "\u2581\u0628\u06be\u06cc\u062c\u0627": 4208,
  "\u2581Galilee": 4209,
  "\u2581beng": 4210,
  "lia": 4211,
  "\u0abf\u0a95": 4212,
  "\u2581\u062c\u06be\u0699\u0648": 4213,
  "\u0a15\u0a3e": 4214,
  "\u2581store": 4215,
  "\u2581\u092d": 4216,
  "\u2581prophecy": 4217,
  "\u2581\u092a\u0941\u0928\u094d\u0939\u093e": 4218,
  "\u2581\u0632\u0627\u0644\u0646": 4219,
  "\u0aae\u0abe": 4220,
  "\u2581\u0995\u09b0\u09ac\u09c7": 4221,
  "\u2581\u091c\u0917": 4222,
  "\u2581\u0a39\u0a41\u0a70\u0a26\u0a3e": 4223,
  "\u2581\u0b06": 4224,
  "\u25813.": 4225,
  "\u2581\u068f\u067a\u0648": 4226,
  "\u2581lot": 4227,
  "id": 4228,
  "\u2581\u0ab2\u0ac7": 4229,
  "\u2581previous": 4230,
  "\u2581\u0a24": 4231,
  "\u2581\u0b24\u0b25\u0b4d\u0b5f": 4232,
  "\u2581spiritually": 4233,
  "ni": 4234,
  "\u2581\u0917\u093e": 4235,
  "\u2581\u0b15\u0b4d\u0b2f\u0b3e\u0b32\u0b47\u0b23\u0b4d\u0b21\u0b30": 4236,
  "\u0da9": 4237,
  "\u2581reveal": 4238,
  "\u2581None": 4239,
  "\u2581examples": 4240,
  "\u2581root": 4241,
  "\u2581\u0dad\u0dd2\u0dba\u0dd9\u0db1\u0dc0\u0dcf": 4242,
  "\u2581\u0935\u093e": 4243,
  "\u2581willing": 4244,
  "\u2581\u0936": 4245,
  "\u2581\u098f\u0995\u099c\u09a8": 4246,
  "\u0ddd": 4247,
  "\u0d9c\u0dd9": 4248,
  "\u2581\u0d95\u0db1": 4249,
  "\u2581\u0ab8\u0aae\u0aaf": 4250,
  "\u2581bax": 4251,
  "\u2581dikhen": 4252,
  "\u2581whatsoever": 4253,
  "\u2581\u062d\u0627\u0644\u062a": 4254,
  "\u2581windows": 4255,
  "\u2581\u0938\u094b": 4256,
  "\u09f0\u09c7": 4257,
  "\u2581\u0b2c\u0b1a\u0b4d\u0b1b\u0b3f\u0b24": 4258,
  "\u2581involved": 4259,
  "\u2581\u0b0f\u0b15": 4260,
  "\u2581\u0938\u092e\u091d": 4261,
  "\u0631\u0648": 4262,
  "\u2581\u0b09\u0b07\u0b23\u0b4d\u0b21\u0b4b": 4263,
  "\u2581instance": 4264,
  "\u2581\u09aa\u09be": 4265,
  "\u2581\"{0}\"": 4266,
  "\u2581\u0908\u092e\u093e\u0928": 4267,
  "\u2581\u06be\u0648\u0646\u062f\u0648": 4268,
  "\u2581tab": 4269,
  "\u2581\u0a2e\u0a47\u0a30": 4270,
  "\u2581\u0b2a\u0b30\u0b3f\u0b2c\u0b30\u0b4d\u0b24\u0b4d\u0b24\u0b28": 4271,
  "\u091d": 4272,
  "\u2581cards": 4273,
  "BAR": 4274,
  "\u091f\u0940": 4275,
  "\u0928\u094b": 4276,
  "\u0db1\u0dd4": 4277,
  "\u2581\u0939\u0941\u0908": 4278,
  "color": 4279,
  "\u2581content": 4280,
  "\u2581\u0967\u0968": 4281,
  "\u2581\u0d91\u0dc4\u0dd9\u0db8": 4282,
  "\u2581loss": 4283,
  "\u2581\u0db1\u0dd0\u0dad\u0dd2": 4284,
  "\u2581\u0d85\u0db4\u0da7": 4285,
  "\u2581\u09b8\u09cd\u09a5\u09be\u09a8\u09be\u09a8\u09cd\u09a4\u09f0": 4286,
  "\u2581Look": 4287,
  "\u2581\u0932\u093f\u092f\u093e": 4288,
  "\u2581\u0a18\u0a30": 4289,
  "\u2581removed": 4290,
  "\u2581\u0939\u093f": 4291,
  "\u2581Ask": 4292,
  "\u2581\u0935\u0930\u094d\u0924\u092e\u093e\u0928": 4293,
  "\u2581manager": 4294,
  "\u2581\u0a38\u0a3e\u0a32": 4295,
  "\u2581lawful": 4296,
  "\u2581\u062c\u0648\u0627\u0628": 4297,
  "\u0b27": 4298,
  "\u2581amende": 4299,
  "\u2581\u0dad\u0db8\u0dba\u0dd2": 4300,
  "\u2581Whoever": 4301,
  "\u09a7": 4302,
  "\u0dc1": 4303,
  "\u093c": 4304,
  "\u2581\u0688\u0627\u0644": 4305,
  "\u067b": 4306,
  "\u2581evening": 4307,
  "\u2581\u0909\u0938\u0940": 4308,
  "\u2581black": 4309,
  "\u2581\u0a38\u0a3c\u0a3e\u0a07\u0a26": 4310,
  "\u2581color": 4311,
  "\u2581Project": 4312,
  "\u2581\u0d91\u0db4\u0dcf": 4313,
  "\u2581\u09b8\u0982\u09b0\u0995\u09cd\u09b7\u09a3": 4314,
  "se": 4315,
  "\u2581disk": 4316,
  "\u2581\u0628\u062f\u0644\u06c1": 4317,
  "\u2581dragostia": 4318,
  "\u2581tumen": 4319,
  "\u2581XML": 4320,
  "\u2581\u092e\u0947\u0930\u0940": 4321,
  "lu": 4322,
  "\u2581Oh": 4323,
  "\u2581\u0909\u0928\u094d\u0939\u094b\u0902\u0928\u0947": 4324,
  "\u0646\u06c1\u06cc\u06ba": 4325,
  "\u258133": 4326,
  "\u2581partners": 4327,
  "\u2581sought": 4328,
  "\u2581several": 4329,
  "\u2581\u068f\u064a\u0646\u062f\u0627": 4330,
  "\u2581\u06c1\u0631\u06af\u0632": 4331,
  "\u2581toolbar": 4332,
  "\u2581\u068f\u064a\u0646\u062f\u0699": 4333,
  "\u2581maintain": 4334,
  "\u2581\u062a\u0627\u0628\u0639\u062f\u0627\u0631\u064a": 4335,
  "\u2581\u068f\u064a\u06bb": 4336,
  "\u2581\u062f\u06cc\u0646": 4337,
  "\u099b\u09bf": 4338,
  "\u2581forget": 4339,
  "\u2581Si": 4340,
  "\u2581\u0646\u06a9\u0644": 4341,
  "\u2581\u0a17": 4342,
  "\u0a96": 4343,
  "\u2581confidence": 4344,
  "\u2581expression": 4345,
  "\u2581\u0628\u0646\u062f\u0648\u06ba": 4346,
  "\u2581\u06a9\u06cc\u06d2": 4347,
  "\u2581offered": 4348,
  "\u2581\u0a38\u0a47\u0a35\u0a3e": 4349,
  "\u2581Hour": 4350,
  "\u0ab5\u0ac1\u0a82": 4351,
  "\u2581First": 4352,
  "\u2581grateful": 4353,
  "\u2581\u067e\u06cc\u063a\u0645\u0628\u0631": 4354,
  "\u2581\u0921\u093f\u0938\u094d\u0915": 4355,
  "\u0907": 4356,
  "\u0b4d\u0b2f": 4357,
  "\u2581witnesses": 4358,
  "\u2581\u0aac\u0aa7\u0abe": 4359,
  "\u2581Properties": 4360,
  "\u2581material": 4361,
  "\u2581\u0646\u0634\u0627\u0646\u06cc\u0627\u06ba": 4362,
  "\u2581apply": 4363,
  "\u2581\u06a9\u0646": 4364,
  "\u2581Disable": 4365,
  "\u0627\u0621": 4366,
  "\u2581top": 4367,
  "imos": 4368,
  "\u2581tute": 4369,
  "\u2581wherein": 4370,
  "\u25818.": 4371,
  "\u2581\u0b06\u0b2a\u0b23\u0b19\u0b4d\u0b15": 4372,
  "\u093e\u0924\u0942\u0928": 4373,
  "\u2581qualities": 4374,
  "\u2581\u0648\u06c1\u0627\u06ba": 4375,
  "\u0db4\u0dca": 4376,
  "\u2581Current": 4377,
  "\u2581Devil": 4378,
  "ive": 4379,
  "\u2581\u062a\u06cc\u0631\u06d2": 4380,
  "\u258128": 4381,
  "\u2581\u098f\u0995\u099f\u09be": 4382,
  "\u0995\u09bf": 4383,
  "\u2581\u06f2": 4384,
  "\u2581cry": 4385,
  "\u2581\u0938\u0915\u0948\u0924": 4386,
  "\u2581\u0686\u0627\u06c1\u0626\u06d2": 4387,
  "\u2581\u0680\u0627\u0646\u064a\u0648": 4388,
  "\u062a\u0648\u0646": 4389,
  "\u2581\u09ae\u09a8\u09c7": 4390,
  ");": 4391,
  "os": 4392,
  "\u2581abide": 4393,
  "\u2581setting": 4394,
  "\u2581chacho": 4395,
  "\u2581\u0aaf\u0ab9\u0acb\u0ab5\u0abe\u0ab9": 4396,
  "\u2581\u0910": 4397,
  "\u2581Watchtower": 4398,
  "\u2581\u0d9a\u0dd2\u0dba\u0db1\u0dca\u0db1": 4399,
  "\u0902\u0928\u093e": 4400,
  "\u2581worthy": 4401,
  "\u2581\u0aae\u0aa6\u0aa6": 4402,
  "\u2581\u0995\u09b0\u09c7\u099b\u09c7\u09a8": 4403,
  "\u0935\u093f\u0937\u092f\u0940": 4404,
  "\u2581\u0b09\u0b1a\u0b3f\u0b24": 4405,
  "\u2581\u0d91\u0db1\u0dca\u0db1": 4406,
  "\u2581\u0926\u094b\u0928": 4407,
  "\u2581granted": 4408,
  "\u2581Here": 4409,
  "\u068f\u0627\u0646\u06be\u0646": 4410,
  "\u2581icon": 4411,
  "\u25815.": 4412,
  "\u0dba\u0dd9\u0db1\u0dca": 4413,
  "\u2581fruits": 4414,
  "\u0633\u0680": 4415,
  "\u2581\u062c\u06be\u0627\u0646": 4416,
  "\u2581\u06af\u06d2\u06d4": 4417,
  "\u2581mine": 4418,
  "!)": 4419,
  "\u2581\u0995\u09b0\u09cd\u09ae": 4420,
  "\u2581apart": 4421,
  "\u2581\u091d\u093e\u0932\u0940": 4422,
  "\u0d9c\u0dd9\u0db1\u0dca": 4423,
  "\u258131": 4424,
  "\u2581happen": 4425,
  "\u2581\u092a\u094d\u0930\u091a\u093e\u0930": 4426,
  "Z": 4427,
  "\u092a\u0923\u0947": 4428,
  "\u2581\u0928\u093e\u0936": 4429,
  "\u2581\u0d94\u0db6\u0dda": 4430,
  "\u2581\u06f4": 4431,
  "\u093e\u0902": 4432,
  "\u2581\u0aa8\u0abf\u0ab7\u0acd\u0aab\u0ab3": 4433,
  "\u2581\u0dc4": 4434,
  "\u093e\u0902\u091a\u0947": 4435,
  "\u2581creatures": 4436,
  "\u2581zhanas": 4437,
  "\u2581\u0ab5": 4438,
  "\u0633\u0648": 4439,
  "\u2581accounts": 4440,
  "\u2581bestowed": 4441,
  "\u2581below": 4442,
  "\u2581guilty": 4443,
  "\u2581\u062e\u0648\u0641": 4444,
  "\u2581\u06af\u06be\u0631\u0646\u062f\u0627": 4445,
  "\u2581\u0d89": 4446,
  "\u2581Keep": 4447,
  "\u2581\u099c": 4448,
  "\u099c\u09be": 4449,
  "\u2581\u0989\u09aa\u09b2\u09ac\u09cd\u09a7": 4450,
  "\u2581\u091c\u093e\u0928": 4451,
  "\u2581\u0989\u09b2\u09cd\u09b2\u09c7\u0996": 4452,
  "Who": 4453,
  "\u2581remote": 4454,
  "\u2581\u0627\u0646\u06a9\u0627\u0631": 4455,
  "\u0ab5\u0acb": 4456,
  "\u0a32\u0a47": 4457,
  "\u2581\u0645\u062d\u0628\u062a": 4458,
  "\u2581Pictures": 4459,
  "\u2581throne": 4460,
  "\u2581ransom": 4461,
  "\u2581served": 4462,
  "\u2581queen": 4463,
  "\u2581sluga": 4464,
  "\u2581\u098f\u0996\u09a8": 4465,
  "\u2581duty": 4466,
  "\u2581\u0632\u0628\u0627\u0646": 4467,
  "\u2581'{0}'": 4468,
  "\u2581\u0dc4\u0ddd": 4469,
  "\u2581\u0915\u092d\u0940": 4470,
  "\u2581\u0907\u0938\u0932\u093f\u090f": 4471,
  "\u2581\u0aad\u0abe\u0a97": 4472,
  "ent": 4473,
  "\u099b": 4474,
  "\u093e\u092f": 4475,
  "\u2581\u0b38\u0b28\u0b4d\u0b27\u0b3e\u0b28": 4476,
  "\u2581\u0aab\u0ab0\u0ac0": 4477,
  "bo": 4478,
  "\u2581\u06c1\u0645\u0627\u0631\u0627": 4479,
  "\u2581\u0a2e\u0a38\u0a40\u0a39\u0a40": 4480,
  "\u2581\u0b2c\u0b38\u0b4d\u0b24\u0b41": 4481,
  "\u2581\u091c\u094d\u091e\u093e\u0928": 4482,
  "\u2581tongue": 4483,
  "\u2581\u09b8\u09c1": 4484,
  "Why": 4485,
  "\u2581\u0dc4\u0dd0\u0d9a\u0dd2": 4486,
  "\u2581\u0926\u0943\u0936\u094d\u092f": 4487,
  "\u2581\u0a32\u0a48": 4488,
  "\u2581pleasure": 4489,
  "\u2581contacts": 4490,
  "\u2581job": 4491,
  "\u2581\u067f\u064a\u06bb": 4492,
  "\u0909": 4493,
  "\u2581throughout": 4494,
  "\u2581\u0627\u0628\u0631\u0627\u06be\u064a\u0645": 4495,
  "\u2581\u0d85\u0daf": 4496,
  "\u0a27": 4497,
  "\u0db0": 4498,
  "\u2581\u0688\u0631": 4499,
  "\u2581advice": 4500,
  "\u2581prove": 4501,
  "\u2581\u0b38\u0b4d\u0b2e\u0b3e\u0b30\u0b15\u0b2a\u0b24\u0b4d\u0b30": 4502,
  "\u2581\u0967\u0967": 4503,
  "\u092e\u0941\u0933\u0947": 4504,
  "\u2581Pharisees": 4505,
  "\u2581nine": 4506,
  "\u2581\u0dc0\u0dd2\u0da7": 4507,
  "action": 4508,
  "\u2581\u0930\u092c": 4509,
  "\u2581\u0a15\u0a40\u0a24\u0a47": 4510,
  "\u2581\u0906\u092a\u0932\u0940": 4511,
  "\u25817.": 4512,
  "\u2581kolaver": 4513,
  "ver": 4514,
  "\u2581Yeah": 4515,
  "\u2581\u06aa\u0646\u062f\u0624": 4516,
  "\u2581height": 4517,
  "\u2581midst": 4518,
  "\u2581kings": 4519,
  "\u2581\u0645\u062a": 4520,
  "\u2581property": 4521,
  "\u2581Table": 4522,
  "\u2581sam": 4523,
  "\u2581\u0627\u06b3\u064a": 4524,
  "\u0dd2\u0dba": 4525,
  "\u2581humble": 4526,
  "\u2581\u0938\u093f": 4527,
  "\u0699\u064a": 4528,
  "\u0923\u093e\u0930": 4529,
  "\u2581reflect": 4530,
  "\u2581Document": 4531,
  "\u2581affect": 4532,
  "\u2581contents": 4533,
  "\u2581kodoleng": 4534,
  "\u2581mangen": 4535,
  "\u258115,": 4536,
  "\u099c\u09a8": 4537,
  "\u2581perform": 4538,
  "\u2581\u0907\u0924\u093f\u0939\u093e\u0938": 4539,
  "\u2581waiting": 4540,
  "\u2581former": 4541,
  "\u0949": 4542,
  "\u2581meaning": 4543,
  "1$": 4544,
  "\u093e\u0938\u093e\u0920\u0940": 4545,
  "\u2581\u0d85\u0dc0\u0dc1\u0dca": 4546,
  "\u2581regard": 4547,
  "\u2581\u0aae\u0abe\u0aaa": 4548,
  "\u0627\u0626\u06bb": 4549,
  "\u258132": 4550,
  "\u2581foundation": 4551,
  "\u2581government": 4552,
  "\u2581party": 4553,
  "\u2581\u0686\u0648\u06bb": 4554,
  "\u2581tumensa": 4555,
  "\u2581Tab": 4556,
  "\u063a": 4557,
  "\u0d9a\u0dd2\u0db1\u0dca": 4558,
  "\u2581header": 4559,
  "\u2581simply": 4560,
  "\u2581\u0915\u093f\u0938": 4561,
  "\u2581\u0924\u0940\u0928": 4562,
  "\u2581continued": 4563,
  "\u2581\u0915\u093f\u090f": 4564,
  "\u2581According": 4565,
  "\u2581repent": 4566,
  "\u2581warner": 4567,
  "\u06a9\u0631": 4568,
  "\u2581\u0a95\u0abe\u0aa2\u0ac0": 4569,
  "\u2581visit": 4570,
  "\u25a1": 4571,
  "\u2581System": 4572,
  "\u2581\u0634\u0631\u06cc\u06a9": 4573,
  "\u2581guides": 4574,
  "\u2581\u067e\u06cc": 4575,
  "\u2581\u0b0f\u0b39\u0b3e": 4576,
  "\u2581greatest": 4577,
  "\u2581\u0985\u09a8\u09c7\u0995": 4578,
  "\u2581issue": 4579,
  "\u0642\u0631": 4580,
  "\u06a6": 4581,
  "\u2581cometh": 4582,
  "up": 4583,
  "\u2581\u0b38\u0b02\u0b2f\u0b4b\u0b17": 4584,
  "\u2581\u0dc0\u0da9\u0dcf": 4585,
  "\u2581\u0dad\u0dd2\u0db6\u0dd9\u0db1": 4586,
  "\u2581\u092a\u094d\u0930\u0924\u093f": 4587,
  "\u258129": 4588,
  "\u092c\u0926\u094d\u0926\u0932": 4589,
  "\u2581published": 4590,
  "\u2581Daniel": 4591,
  "\u2581effort": 4592,
  "\u2581\u09a4\u09ac\u09c7": 4593,
  "\u2581software": 4594,
  "\u2581\u0928\u092f\u0947": 4595,
  "\u2581\u0a05\u0a71\u0a1c": 4596,
  "\u2581twelve": 4597,
  "\u2581Note": 4598,
  "\u2581burn": 4599,
  "\u2581mangav": 4600,
  "\u2581mothon": 4601,
  "\u2581porme": 4602,
  "\u2581\u09a8\u09bf\u09f0\u09cd\u09ac\u09be\u099a\u09a8": 4603,
  "\u2581sit": 4604,
  "\u2581\u06be\u0626\u064a": 4605,
  "\u2581circumstances": 4606,
  "\u0b28\u0b4d\u0b24\u0b41": 4607,
  "\u2581\u0932": 4608,
  "\u2581\u0627\u067f\u0633": 4609,
  "\u2581sexual": 4610,
  "\u2581\u0a24\u0a41\u0a39\u0a3e\u0a21": 4611,
  "\u2581stone": 4612,
  "\u2581\u0633\u0686\u0648": 4613,
  "\u2581\u0a2e\u0a3f\u0a38\u0a3e\u0a32": 4614,
  "\u2581serious": 4615,
  "\u2581\u092e\u0941\u0932\u0917\u093e": 4616,
  "\u2581\u09ac\u09f0\u09cd\u09a4\u09ae\u09be\u09a8": 4617,
  "\u2581wonderful": 4618,
  "\u2581Pacific": 4619,
  "\u2581Every": 4620,
  "\u2581\u0927\u0930\u094d\u092e": 4621,
  "\u2581\u0680\u0627": 4622,
  "\u2581Aaron": 4623,
  "\u2581Windows": 4624,
  "\u2581\u0b39\u0b4b\u0b07\u0b1b\u0b3f": 4625,
  "\u2581\u0938\u0939\u0947\u091c\u0942": 4626,
  "\u2581built": 4627,
  "\u0923\u094d\u092f\u093e\u0938": 4628,
  "\u2581\u0995\u09b0\u09c7\u099b\u09c7": 4629,
  "\u2581request": 4630,
  "\u062b": 4631,
  "\u2581End": 4632,
  "\u2581\u09ae\u09c7": 4633,
  "\u0639\u0644\u06cc\u06c1": 4634,
  "\u2581\u0938\u093e\u092e\u093e\u0928\u094d\u092f": 4635,
  "\u2581\u0dc3\u0db8\u0d9f": 4636,
  "\u2581half": 4637,
  "\u2581\u09aa\u09a5": 4638,
  "\u2581Public": 4639,
  "\u0abe\u0a87": 4640,
  "\u2581lia": 4641,
  "\u2581minutes": 4642,
  "\u2581opre": 4643,
  "\u2581\u0a38\u0a3e\u0a30": 4644,
  "\u2581goes": 4645,
  "\u2581asking": 4646,
  "\u2581\u067d\u0648\u0644\u064a": 4647,
  "\u2581\u09a4\u09be\u0995\u09c7": 4648,
  "\u2581\u0935\u093e\u092a\u0930": 4649,
  "\u0d9a\u0db8": 4650,
  "\u2581\u091c\u0935\u0933": 4651,
  "\u2581conscience": 4652,
  "\u2581\u0db8\u0dd9\u0dc3\u0dda": 4653,
  "\u2581punish": 4654,
  "\u2581Z": 4655,
  "\u2581currently": 4656,
  "\u2581\u0996\u09c7\u09b2\u09be": 4657,
  "\u25813,": 4658,
  "\u2581\u0dc4\u0dd0\u0db8": 4659,
  "\u2581Editor": 4660,
  "\u2581\u0644\u0627\u067f\u0648": 4661,
  "\u064a\u0631": 4662,
  "\u2581results": 4663,
  "\u2581warned": 4664,
  "\u2581\u062c\u06cc\u0633\u06d2": 4665,
  "\u0915\u093c": 4666,
  "\u2581Anda": 4667,
  "\u2581amperetsia": 4668,
  "\u2581busholas": 4669,
  "\u2581\u0686\u0648\u0646\u062f\u0648": 4670,
  "\u2581Run": 4671,
  "\u2581visible": 4672,
  "\u2581entire": 4673,
  "\u06aa\u0631": 4674,
  "\u06af\u06cc": 4675,
  "\u2581turns": 4676,
  "Edit": 4677,
  "\u2581GNU": 4678,
  "\u2581\u0995\u09b2": 4679,
  "chi": 4680,
  "\u2581\u0ab8\u0ab0\u0acd\u0ab5\u0ab0": 4681,
  "\u2581\u0932\u094b\u0915\u093e\u0902\u0928\u0940": 4682,
  "\u0938\u0902": 4683,
  "\u2581\u0915\u0941\u0901\u091c\u0940": 4684,
  "\u0939\u0947": 4685,
  "\u2581\u0a39": 4686,
  "\u092c\u0942": 4687,
  "\u2581More": 4688,
  "\u2581\u0928\u0915\u093e": 4689,
  "\u0aa4\u0acb": 4690,
  "\u2581Check": 4691,
  "\u2581Video": 4692,
  "\u0dba\u0ddd": 4693,
  "\u2581Life": 4694,
  "\u2581\u0a95\u0ab0\u0ab5\u0abe\u0aae\u0abe\u0a82": 4695,
  "\u0db4\u0dcf": 4696,
  "\u09aa\u09be": 4697,
  "\u2581\u06c1\u0648\u06af\u06cc": 4698,
  "\u2581\u06a9\u0631\u062f\u06cc\u0627": 4699,
  "\u2581Herod": 4700,
  "\u2581birth": 4701,
  "\u2581\u099f": 4702,
  "\u2581speed": 4703,
  "\u2581\u0924\u093e\u0915\u093f": 4704,
  "\u2581\u0926\u0942\u0938\u0930\u0947": 4705,
  "il": 4706,
  "\u2581kerav": 4707,
  "\u2581phendias": 4708,
  "\u2581\u09aa\u09cb\u09f1\u09be": 4709,
  "\u2581\u099a": 4710,
  "\u2581\u0906\u092e\u091a\u094d\u092f\u093e": 4711,
  "man": 4712,
  "\u2581\u0645\u0633\u06cc\u062d\u06cc": 4713,
  "\u0a30\u0a47": 4714,
  "\u2581\u092f\u0947\u0908\u0932": 4715,
  "\u2581\u0b06\u0b30\u0b2e\u0b4d\u0b2d": 4716,
  "\u258127": 4717,
  "\u2581\u0926\u0947\u0916\u0940\u0932": 4718,
  "\u0dba\u0dd9\u0d9a\u0dca": 4719,
  "\u2581integrity": 4720,
  "\u2581\u0905\u0938\u0902": 4721,
  "\u2581Give": 4722,
  "\u2581\u0a24\u0a38\u0a35\u0a40\u0a30": 4723,
  "\u2581dear": 4724,
  "ry": 4725,
  "\u2581append": 4726,
  "\u2581Mode": 4727,
  "\u2581style": 4728,
  "\u2581\u0a95\u0abe\u0aae": 4729,
  "by": 4730,
  "\u2581\u0b2c\u0b3e": 4731,
  "\u0dd4\u0dc0": 4732,
  "\u0aa1\u0abe": 4733,
  "\u2581thodia": 4734,
  "\u2581zhan": 4735,
  "\u2581\"{0}": 4736,
  "\u2581\u092a\u093f": 4737,
  "ting": 4738,
  "\u0996": 4739,
  "\u2581\u09a7": 4740,
  "\u25818:": 4741,
  "\u2581church": 4742,
  "\u068f": 4743,
  "\u2581hours": 4744,
  "\u2581\u0939\u092e\u093e\u0930\u0940": 4745,
  "\u091c\u0935\u0933": 4746,
  "\u2581seized": 4747,
  "In": 4748,
  "\u2581\u0935\u093e\u0908\u091f": 4749,
  "\u2581\u09af\u09be\u09ac\u09c7": 4750,
  "\u0da9\u0dca": 4751,
  "\u2581\u092c\u0921\u093c\u093e": 4752,
  "\u2581\u0915\u0938\u0947": 4753,
  "\u067f": 4754,
  "\u0948\u0924": 4755,
  "\u0937\u094d\u091f": 4756,
  "\u2581endure": 4757,
  "\u2581\u0aa5\u0abe\u0aaf": 4758,
  "\u2581abode": 4759,
  "\u0b17": 4760,
  "\u0a35\u0a3e": 4761,
  "\u2581replied": 4762,
  "\u2581Gardens": 4763,
  "\u2581pacha": 4764,
  "\u2581\u067e\u0648\u0631\u0648": 4765,
  "\u2581\u0915\u0930\u0923\u094d\u092f\u093e\u0938": 4766,
  "\u2581\u0633\u0648\u0627\u0621": 4767,
  "\u09b8\u09ae\u09c2\u09b9\u09f0": 4768,
  "\u2581\u092f\u0939\u094b\u0935\u093e\u0928\u0947": 4769,
  "\u2581\u0905\u0938\u0924\u0947": 4770,
  "\u2581\u0938\u094d\u0935\u0924\u0903": 4771,
  "\u2581\u0a2a\u0a42\u0a30\u0a40": 4772,
  "\u2581force": 4773,
  "\u2581\u067e\u0631\u06be\u064a\u0632\u06af\u0627\u0631": 4774,
  "\u2581\u092f\u093e\u0926": 4775,
  "\u2581\u09b2\u0997": 4776,
  "\u0624\u06ba": 4777,
  "\u2581Ye": 4778,
  "\u2581\u0932\u093e\u0932": 4779,
  "\u2581\u092f\u0939\u093e\u0901": 4780,
  "\u2581proper": 4781,
  "\u2581\u0d87\u0dba": 4782,
  "Add": 4783,
  "\u2581\u0a96": 4784,
  "\u2581\u0dba\u0db1": 4785,
  "\u2581\u0935\u093f\u092b\u0932": 4786,
  "\u2581\u0a26\u0a3f\u0a28": 4787,
  "\u2581\u0a10": 4788,
  "\u2581\u0dc4\u0dd2\u0dad": 4789,
  "\u2581angelo": 4790,
  "\u2581strive": 4791,
  "\u2581\u0645\u0683\u064a\u0646\u062f\u0627": 4792,
  "\u258140": 4793,
  "\u2581ill": 4794,
  "\u2581\u067e\u0627": 4795,
  "\u2581\u0d94\u0dba\u0dcf\u0d9c\u0dda": 4796,
  "\u2581\u0aaa\u0abe": 4797,
  "\u2581\u0642\u0631\u06cc\u0628": 4798,
  "\u2581provides": 4799,
  "\u2581\u062b\u0627\u0628\u062a": 4800,
  "\u2581\u0938\u093f\u0930\u094d\u092b": 4801,
  "\u258114.": 4802,
  "\u2581\u0a26\u0a47\u0a23": 4803,
  "\u2581\u0645\u062c\u06be": 4804,
  "\u0dd3": 4805,
  "\u06a9\u0648": 4806,
  "\u2581ability": 4807,
  "\u2581\u09b8\u09a8\u09cd\u09a7\u09be\u09a8": 4808,
  "\u2581\u0ab9\u0aa4\u0ac0": 4809,
  "\u2581Exchange": 4810,
  "\u09f0\u09be": 4811,
  "\u2581\u0daf\u0dd9\u0dc0\u0dd2\u0da7": 4812,
  "\u2581\u062f\u0648\u0631": 4813,
  "\u2581\u0633\u0646": 4814,
  "\u0645\u067f\u0633": 4815,
  "\u2581\u0915\u094d\u0937\u0947\u0924\u094d\u0930": 4816,
  "\u2581\u0634\u06aa": 4817,
  "\u2581Gentiles": 4818,
  "\u2581\u0646\u0648\u062d": 4819,
  "X": 4820,
  "\u0633\u062a": 4821,
  "\u2581successfully": 4822,
  "\u068c\u0648": 4823,
  "\u2581\u0628\u0631\u0627": 4824,
  "\u0b17\u0b41\u0b21\u0b3f\u0b15": 4825,
  "\u2581\u0a15\u0a3f\u0a09\u0a02\u0a15\u0a3f": 4826,
  "\u25819.": 4827,
  "\u0627\u0645": 4828,
  "\u2581\u0938\u094d\u0935\u0940\u0915\u093e\u0930": 4829,
  "\u2581\u092a\u0930\u093f\u0923\u093e\u092e": 4830,
  "name": 4831,
  "\u2581\u0644\u0627\u0632\u0645": 4832,
  "\u2581\u092f\u0947\u0925\u0947": 4833,
  "\u2581description": 4834,
  "\u2581\u0a07\u0a28\u0a38\u0a3e\u0a28": 4835,
  "\u2581details": 4836,
  "\u2581\u0639\u0648\u0631\u062a\u0648\u06ba": 4837,
  "\u2581calling": 4838,
  "\u2581respond": 4839,
  "\u2581\u0989\u09aa\u09b0": 4840,
  "\u2581Mail": 4841,
  "\u2581earlier": 4842,
  "\u0923\u094d\u092f\u093e\u091a\u0940": 4843,
  "\u2581Babylon": 4844,
  "\u2581\u0648\u0627\u0631\u062b": 4845,
  "\u2581Configure": 4846,
  "\u0924\u094d\u092f\u093e": 4847,
  "\u06b3\u0627\u0644\u06be": 4848,
  "\u2581lel": 4849,
  "\u2581produce": 4850,
  "\u2581\u0a15\u0a30\u0a28\u0a40": 4851,
  "\u0921\u093e": 4852,
  "\u2581physical": 4853,
  "\u2581\u0917\u0947\u0932\u0947": 4854,
  "\u2581helps": 4855,
  "\u2581touch": 4856,
  "\u2581\u092a\u0939\u0941\u0901\u091a": 4857,
  "\u099b\u09bf\u09b2": 4858,
  "\u2581efforts": 4859,
  "\u2581\u091b\u094b\u0921\u093c": 4860,
  "\u2581establish": 4861,
  "\u2581\u0646\u0638\u0631": 4862,
  "\u2581loves": 4863,
  "\u2581\u0906\u0932\u0940": 4864,
  "\u2581\u0641\u0633\u0627\u062f": 4865,
  "\u09a8\u09cd\u09a4": 4866,
  "\u2581\u0926\u0938\u094d\u0924\u093e\u092c\u0947\u091c": 4867,
  "\u0dc0\u0d9a\u0dca": 4868,
  "\u2581\u0627\u0646\u062a\u0638\u0627\u0631": 4869,
  "\u258112.": 4870,
  "\u0679": 4871,
  "\u2581ashunde": 4872,
  "\u0938\u0901": 4873,
  "\u2581\u0989\u09a6\u09cd\u09a6\u09c7\u09b6\u09cd\u09af\u09c7": 4874,
  "\u0648\u0627\u0631": 4875,
  "\u2581\u092a\u0947\u091c": 4876,
  "\u2581ship": 4877,
  "\u2581\u0631\u06a9\u06be\u062a\u0627": 4878,
  "\u2581portion": 4879,
  "\u2581\u0645\u0699\u0633": 4880,
  "\u0626\u06cc\u06ba": 4881,
  "\u2581OF": 4882,
  "\u2581hurt": 4883,
  "\u2581causes": 4884,
  "\u2581\u06a9\u0631\u062a\u06cc": 4885,
  "\u258111.": 4886,
  "\u2581committed": 4887,
  "\u2581sending": 4888,
  "\u2581\u0930\u093e\u0939": 4889,
  "?'": 4890,
  "\u2581imitate": 4891,
  "\u2581\u092a\u0942\u0930\u093e": 4892,
  "\u2581\u0644\u0627\u0626\u0642": 4893,
  "\u2581\u0646\u0634\u0627\u0646\u064a": 4894,
  "\u2581memory": 4895,
  "\u0da2": 4896,
  "\u2581\u0b2c\u0b3f": 4897,
  "ot": 4898,
  "\u093e\u0938": 4899,
  "\u2581antunchi": 4900,
  "\u0b21": 4901,
  "\u2581\u0627\u06a9\u062b\u0631": 4902,
  "\u2581observe": 4903,
  "\u2581\u0a2a\u0a24\u0a3e": 4904,
  "\u0626\u06cc": 4905,
  "\u2581contain": 4906,
  "\u2581\u0628\u0691\u06be": 4907,
  "When": 4908,
  "\u2581\u09a5\u0995\u09be": 4909,
  "\u2581\u092e\u093e\u091d\u093e": 4910,
  "\u2581\u09ea": 4911,
  "\u2581escape": 4912,
  "\u2581office": 4913,
  "\u2581\u09b8\u0995\u09cd\u09b0\u09bf\u09af\u09bc": 4914,
  "\u2581private": 4915,
  "\u2581\u062c\u0627\u062f\u0648": 4916,
  "\u2581entry": 4917,
  "\u2581looked": 4918,
  "\u2581\u0985\u09a8\u09c1\u09ae\u09a4\u09bf": 4919,
  "\u2581\u06cc\u0642\u06cc\u0646": 4920,
  "\u2581acts": 4921,
  "\u2581\u0dc0\u0db1\u0dca\u0db1\u0dda": 4922,
  "\u2581tasks": 4923,
  "\u2581\u0687": 4924,
  "\u2581\u0646\u0627\u0633": 4925,
  "\u0dc0\u0dbd\u0dd2\u0db1\u0dca": 4926,
  "\u2581\u0a15\u0a3e\u0a30\u0a28": 4927,
  "\u2581gonna": 4928,
  "\u0627\u0626": 4929,
  "\u2581\u0645\u0648\u06aa\u0644\u064a\u0648": 4930,
  "\u2581Background": 4931,
  "\u2581During": 4932,
  "\u2581Isaac": 4933,
  "\u2581Nai": 4934,
  "\u2581martia": 4935,
  "\u2581\u0645\u0644": 4936,
  "\u2581\u0926\u093f\u0932\u0940": 4937,
  "\u2581\u0648\u068f\u0627\u0626\u064a": 4938,
  "\u2581\u09a4\u09c1": 4939,
  "\u2581\u0a16": 4940,
  "\u2581hypocrites": 4941,
  "\u2581\u067f\u0626\u064a": 4942,
  "\u2581\u0935\u0947\u0933": 4943,
  "\u2581\u092a\u093e\u0939\u093e": 4944,
  "\u0a08": 4945,
  "\u2581\u0920\u0947\u0935": 4946,
  "co": 4947,
  "\u2581class": 4948,
  "\u2581\u091c\u093e\u090f\u0917\u093e": 4949,
  "\u2581moving": 4950,
  "\u2581\u0aaa\u0acd\u0ab0": 4951,
  "\u2581\u063a\u0648\u0631": 4952,
  "\u0ab6\u0ac7": 4953,
  "\u2581\u0a2a\u0a4d\u0a30": 4954,
  "\u2581\u0633\u0627\u0645\u0627\u0646": 4955,
  "\u2581\u0627\u062d\u0633\u0627\u0646": 4956,
  "\u2581\u0a21\u0a3f\u0a38\u0a15": 4957,
  "\u0b39": 4958,
  "\u2581\u0906\u0936\u093e": 4959,
  "\u2581\u0646\u06a9\u0627\u0644": 4960,
  "\u2581xantsi": 4961,
  "\u2581zhuvli": 4962,
  "\u2581\u0645\u0646\u06c1": 4963,
  "\u2581\u0928\u093f\u0930\u094d\u092e\u093e\u0923": 4964,
  "\u0626\u0646": 4965,
  "\u0a3f\u0a24": 4966,
  "\u2581\u0924\u093f\u0932\u093e": 4967,
  "\u2581\u0648\u062d\u064a": 4968,
  "\u09ae\u09c7\u0987\u09b2": 4969,
  "\u2581title": 4970,
  "\u2581\u0631\u06c1": 4971,
  "\u2581\u0916\u0930\u0947": 4972,
  "\u2581avail": 4973,
  "\u2581\u0b05\u0b1b\u0b3f": 4974,
  "\u0aa1\u0ac0": 4975,
  "\u2581favour": 4976,
  "\u0633\u0627\u06bb\u0633": 4977,
  "DVD": 4978,
  "\u2581\u0645\u0646\u06be\u0646": 4979,
  "\u2581\u091a\u093e\u0939\u0924\u0947": 4980,
  "\u2581box": 4981,
  "\u0923\u094d\u092f\u093e\u0924": 4982,
  "\u2581\u0915\u094b\u0923\u0924\u094d\u092f\u093e": 4983,
  "\u2581\u0645\u0646": 4984,
  "\u2581\u0b16\u0b3e\u0b24\u0b3e": 4985,
  "\u2581\u0939\u094b\u090a": 4986,
  "\u2581\u0995\u09be": 4987,
  "\u2581\u0645\u0648\u0633\u0649": 4988,
  "\u2581amenge": 4989,
  "\u2581animals": 4990,
  "\u2581quit": 4991,
  "\u0abe\u0aaf": 4992,
  "\u2581unable": 4993,
  "\u092f\u0947": 4994,
  "\u2581\u091b\u0940": 4995,
  "\u2581excellent": 4996,
  "\u2581\u091f": 4997,
  "To": 4998,
  "\u2581belong": 4999,
  "\u2581organization": 5000,
  "\u2581print": 5001,
  "\u2581standard": 5002,
  "\u2581\u0a95\u0ab0\u0ac7\u0ab2": 5003,
  "\u2581keys": 5004,
  "\u2581sleep": 5005,
  "\u2581\u0926\u093e\u0916\u0935": 5006,
  "\u2581\u0633\u0627\u0631\u0627\u06be": 5007,
  "\u2581\u0aa4\u0aae\u0abe\u0ab0\u0abe": 5008,
  "\u2581\u0985\u09ac\u09c8\u09a7": 5009,
  "\u2581\u09b0\u09a4\u09bf": 5010,
  "\u0648\u062a": 5011,
  "\u0935\u094d\u0939": 5012,
  "\u2581\u0ab9": 5013,
  "\u0997\u09c1\u09b2\u09bf": 5014,
  "\u2581\u0dad": 5015,
  "\u2581\u0db8\u0dcf\u0dc0": 5016,
  "\u2581progress": 5017,
  "\u2581\u0b2a\u0b4d\u0b30\u0b5f\u0b4b\u0b17": 5018,
  "\u2581\u0d92\u0dc0\u0dcf": 5019,
  "\u2581\u091c\u0947\u0935\u094d\u0939\u093e": 5020,
  "\u2581\u092a\u0930\u0924": 5021,
  "\u2581argument": 5022,
  "\u2581\u068f\u06a9": 5023,
  "\u2581aside": 5024,
  "\u2581\u0642\u062a\u0644": 5025,
  "\u2581\u0aa8\u0ac0": 5026,
  "\u2581eternal": 5027,
  "\u2581\u0985\u09a8\u09c1\u0997\u09cd\u09f0\u09b9": 5028,
  "\u2581\u0917\u094b\u0937\u094d\u091f": 5029,
  "\u0daf\u0dd4": 5030,
  "\u258115:": 5031,
  "\u2581clipboard": 5032,
  "\u2581burden": 5033,
  "\u2581enabled": 5034,
  "\u2581\u092b\u093e\u0930": 5035,
  "\u2581cattle": 5036,
  "Open": 5037,
  "\u2581\u0a26\u0a47\u0a16": 5038,
  "\u2581\u0935\u093e\u091f": 5039,
  "\u2581pachan": 5040,
  "\u2581punrhe": 5041,
  "\u0a71": 5042,
  "\u2581mountain": 5043,
  "\u2581\u067a": 5044,
  "\u2581\u0915\u093f\u0924\u093e\u092c": 5045,
  "\u2581#": 5046,
  "\u2581opportunity": 5047,
  "\u2581\u0b2a\u0b4d\u0b30\u0b2e\u0b3e\u0b23\u0b2a\u0b24\u0b4d\u0b30": 5048,
  "\u2581\u0b30\u0b47": 5049,
  "weather": 5050,
  "\u2581\u0906\u0923": 5051,
  "\u2581Still": 5052,
  "\u09cc": 5053,
  "\u2581\u0631\u06c1\u06cc": 5054,
  "\u2581\u0628\u06be\u0634\u062a": 5055,
  "\u0dd9\u0db1": 5056,
  "ga": 5057,
  "\u2581groups": 5058,
  "\u2581join": 5059,
  "\u2581grant": 5060,
  "\u2581\u0938\u0915\u0932": 5061,
  "\u2581Hebrews": 5062,
  "\u2581lose": 5063,
  "\u2581walking": 5064,
  "\u2581\u09aa\u09cd\u09f0\u09a4\u09bf": 5065,
  "\u2581Mount": 5066,
  "\u0db8\u0dd4": 5067,
  "\u0a1d": 5068,
  "\u2581dino": 5069,
  "\u2581\u0622\u0648\u0627\u0632": 5070,
  "\u2581\u0917\u0930\u091c": 5071,
  "\u2581\u0926\u0941\u0937\u094d\u091f": 5072,
  "\u2581\u0a39\u0a41\u0a23": 5073,
  "\u2581\u0b15\u0b30\u0b3f\u0b25\u0b3e\u0b0f": 5074,
  "\u2581\u062d\u06aa\u0645": 5075,
  "\u2581bounty": 5076,
  "\u2581\u0968\u0966": 5077,
  "\u2581\u0939\u093e\u0925": 5078,
  "\u2581outside": 5079,
  "\u2581recorded": 5080,
  "\u2581\u0918": 5081,
  "\u2581story": 5082,
  "\u2581\u0924\u0938\u0947\u091a": 5083,
  "\u2581News": 5084,
  "\u0db1\u0dc0\u0dcf": 5085,
  "\u09a8\u09cb": 5086,
  "\u2581\u09b8\u0982\u09af\u09c1\u0995\u09cd\u09a4": 5087,
  "\u2581\u0aac\u0abe\u0a87\u0aac\u0ab2": 5088,
  "\u2581vain": 5089,
  "\u2581\u0a2e\u0a38\u0a40\u0a39": 5090,
  "\u2581\u0939\u094d\u092f\u093e": 5091,
  "\u2581khangeri": 5092,
  "\u0a25": 5093,
  "unit": 5094,
  "\u258126": 5095,
  "mo": 5096,
  "\u2581\u0622\u0646\u06d2": 5097,
  "\u2581\u0d87": 5098,
  "\u2581generations": 5099,
  "\u2581signature": 5100,
  "\u2581Witness": 5101,
  "\u2581\u0645\u0631\u062f": 5102,
  "\u2581\u091a\u0932": 5103,
  "\u2581\u0645\u0637\u0627\u0628\u0642": 5104,
  "\u2581commandment": 5105,
  "\u2581\u0648\u0627\u0644\u0648": 5106,
  "\u0a1f\u0a40": 5107,
  "\u2581\u0a2e\u0a28": 5108,
  "\u2581\u09b9\u09c7": 5109,
  "\u2581authentication": 5110,
  "\u2581explained": 5111,
  "\u2581requires": 5112,
  "\u2581showing": 5113,
  "\u2581\u0b2a\u0b41\u0b28\u0b03": 5114,
  "\u2581carried": 5115,
  "\u0630\u0627": 5116,
  "\u09b8\u09cd\u099f": 5117,
  "\u2581\u06aa\u0646\u062f\u0699\u0646": 5118,
  "\u25816.": 5119,
  "\u2581Out": 5120,
  "\u2581offspring": 5121,
  "\u2581\u0dad\u0db8": 5122,
  "\u2581Group": 5123,
  "\u2581\u0ab8\u0a82\u0a97\u0acd\u0ab0\u0ab9": 5124,
  "\u2581lashe": 5125,
  "\u2581\u0a27\u0a30\u0a24\u0a40": 5126,
  "\u2581household": 5127,
  "\u2581\u0924\u0930\u092b": 5128,
  "\u2581spent": 5129,
  "\u2581Network": 5130,
  "\u2581\u0d95\u0db1\u0dda": 5131,
  "\u0639\u0630\u0627\u0628": 5132,
  "\u2581\u09b8\u09bf": 5133,
  "\u092a\u0923\u093e": 5134,
  "\u2581Before": 5135,
  "\u094d\u092f\u0942": 5136,
  "\u2581\u091a\u0940\u091c\u093c": 5137,
  "\u2581assigned": 5138,
  "\u0a35\u0a3e\u0a02": 5139,
  "\u2581\u092e\u093e\u091d\u0947": 5140,
  "\u258113.": 5141,
  "\u2581\u0631\u0632\u0642": 5142,
  "\u2581\u0a15\u0a4b\u0a32": 5143,
  "\u093e\u0907": 5144,
  "po": 5145,
  "\u0628\u0687\u0699\u0648": 5146,
  "\u2581code": 5147,
  "\u2581proved": 5148,
  "\u2581riches": 5149,
  "\u2581\u0915\u094c\u0928": 5150,
  "\u0ab2\u0ac0": 5151,
  "\u2581\u0632\u0646\u062f\u06c1": 5152,
  "\u2581families": 5153,
  "\u2581beloved": 5154,
  "\u2581garden": 5155,
  "\u0a71\u0a1f": 5156,
  "\u2581\u0906\u0939\u094b\u0924": 5157,
  "\u2581\u0938\u093e\u0932": 5158,
  "\u2581\u0645\u0648\u06aa\u0644\u064a\u0648\u0633\u0648\u0646": 5159,
  "\u2581\u0dc0\u0dd0\u0da9\u0dd2": 5160,
  "\u2581\u067e\u06c1\u0646\u0686\u0627": 5161,
  "\u2581\u0aa5\u0a88": 5162,
  "\u2581zhanav": 5163,
  "\u2581Apostle": 5164,
  "\u2581\u09b8\u09ae\u09b8\u09cd\u09a4": 5165,
  "\u0ab8\u0abe": 5166,
  "\u2581\u0642\u062f\u0631": 5167,
  "\u0648\u0627": 5168,
  "\u2581vision": 5169,
  "\u2581necessary": 5170,
  "\u2581\u0a35\u0a3f": 5171,
  "\\@": 5172,
  "\u2581Scriptural": 5173,
  "\u2581\u067e\u067d": 5174,
  "\u2581remained": 5175,
  "\u2581\u06f5": 5176,
  "\u2581Account": 5177,
  "\u2581Tell": 5178,
  "\u2581appropriate": 5179,
  "\u0646\u06cc\u0627": 5180,
  "\u2581\u092e\u093e\u0939\u0940\u0924": 5181,
  "\u2581Left": 5182,
  "\u2581decided": 5183,
  "\u09a4\u09cb": 5184,
  "\u2581\u099a\u09be\u09f0\u09cd\u09ad\u09be\u09f0": 5185,
  "\u2581\u0b38\u0b43\u0b37\u0b4d\u0b1f\u0b3f": 5186,
  "\u2581width": 5187,
  "\u0646\u06be\u064a": 5188,
  "\u2581Zoom": 5189,
  "\u2581khonik": 5190,
  "\u2581zhanel": 5191,
  "\u2581writing": 5192,
  "\u2581non": 5193,
  "\u0abe\u0aaf\u0ac7\u0ab2": 5194,
  "\u2581precious": 5195,
  "\u2581\u0917\u0941": 5196,
  "\u2581loyal": 5197,
  "\u2581\u0b2a\u0b30\u0b3f": 5198,
  "Q": 5199,
  "\u2581\u0a27\u0a3f\u0a06\u0a28": 5200,
  "\u2581\u0a35\u0a3e\u0a30": 5201,
  "\u062f\u0648": 5202,
  "\u0941\u0915": 5203,
  "\u2581falsehood": 5204,
  "\u2581\u06a9\u0644\u0627\u0645": 5205,
  "\u0648\u0644": 5206,
  "\u2581\u0926\u0947\u0924\u0947": 5207,
  "\u2581\u062d\u0644\u0627\u0644": 5208,
  "\u2581Pilate": 5209,
  "\u2581lensa": 5210,
  "\u0627\u0646\u06cc": 5211,
  "\u2581\u0967\u0969": 5212,
  "\u258114:": 5213,
  "\u2581testimony": 5214,
  "\u2581actually": 5215,
  "\u0927\u093e": 5216,
  "\u2581\u0db8\u0ddc\u0d9a\u0daf": 5217,
  "\u2581company": 5218,
  "\u2581\u067e\u0699\u06be\u064a": 5219,
  "\u2581\u0906\u092a\u0915\u094b": 5220,
  "\u2581\u09a1\u09bf\u09ab\u09b2\u09cd\u099f": 5221,
  "\u2581curse": 5222,
  "\u2581\u0ab8\u0ac1\u0aaf\u0acb\u0a9c\u0abf\u0aa4": 5223,
  "\u099c\u09bf": 5224,
  "\u2581fail": 5225,
  "\u2581mule": 5226,
  "\u062f\u06cc": 5227,
  "\u2581godly": 5228,
  "\u2581baptism": 5229,
  "\u0a9d": 5230,
  "\u2581\u091b\u0935\u093f": 5231,
  "\u2581Loading": 5232,
  "\u2581\u0628\u0627\u062a\u06cc\u06ba": 5233,
  "\u2581Musa": 5234,
  "\u0985": 5235,
  "\u09a1\u09bc": 5236,
  "\u2581\u09b2\u09cb\u0995": 5237,
  "\u2581\u0928\u0902\u0924\u0930": 5238,
  "\u2581\u0a2b\u0a4b\u0a32\u0a21\u0a30": 5239,
  "lengo": 5240,
  "\u2581\u09aa\u09f0\u09bf": 5241,
  "ut": 5242,
  "\u2581\u0628\u062f": 5243,
  "\u091a\u0902": 5244,
  "\u0922": 5245,
  "\u2581\u0915\u0936\u093e": 5246,
  "\u0967": 5247,
  "\u2581stars": 5248,
  "\u2581\u091d": 5249,
  "\u2581\u0906\u0908": 5250,
  "\u2581\u0924\u093f\u091a\u094d\u092f\u093e": 5251,
  "\u2581daily": 5252,
  "\u2581\u0627\u06be\u064a": 5253,
  "\u2581\u09b8\u09a0\u09bf\u0995": 5254,
  "\u2581\u0622\u062f\u0645": 5255,
  "\u0915\u0943\u0924": 5256,
  "\u2581\u0917\u092f\u0940": 5257,
  "\u2581Mighty": 5258,
  "\u2581willed": 5259,
  "\u2581\u0b38\u0b3e\u0b15\u0b4d\u0b37\u0b3e\u0b24\u0b15\u0b3e\u0b30": 5260,
  "\u2581\u0924\u0947\u0925\u0947": 5261,
  "\u2581\u0b2a\u0b4d\u0b30\u0b2c\u0b47\u0b36": 5262,
  "\u2581rise": 5263,
  "\u2581\u068a\u064a\u0684\u0627\u0631\u064a\u0646\u062f\u0699": 5264,
  "\u2581\u0916\u094b\u091c\u0942": 5265,
  "\u2581\u06f3": 5266,
  "\u2581\u092e\u093e\u0939\u093f\u0924\u0940": 5267,
  "\u2581nasul": 5268,
  "\u2581zhal": 5269,
  "\u2581almost": 5270,
  "\u2581\u0ab9\u0ac1\u0a82": 5271,
  "\u06be\u06aa": 5272,
  "\u2581parent": 5273,
  "\u2581\u0632": 5274,
  "\u2581beautiful": 5275,
  "\u2581\u0995\u09ae\u09be\u09a8\u09cd\u09a1": 5276,
  "\u2581\u09aa\u09be\u0993\u09af\u09bc\u09be": 5277,
  "\u2581\u062c\u0645\u0639": 5278,
  "\u2581\u0926\u0947\u0935\u093e\u091a\u0947": 5279,
  "\u2581\u0b38\u0b4d\u0b25\u0b3e\u0b28": 5280,
  "\u2581Moreover": 5281,
  "\u09ae\u09bf": 5282,
  "\u2581\u091f\u093e\u0915": 5283,
  "\u2581\u0d9a\u0dcf": 5284,
  "\u2581\u092a\u0943\u0925\u094d\u0935\u0940": 5285,
  "\u2581\u09a1\u09bf": 5286,
  "\u2581\u0938\u0939\u0940": 5287,
  "\u2581pain": 5288,
  "\u2581\u0622\u064a\u062a\u0648\u0646": 5289,
  "\u09be\u09a8": 5290,
  "\u2581wrongdoers": 5291,
  "\u096b": 5292,
  "\u2581\u0967\u096a": 5293,
  "\u2581Another": 5294,
  "\u2581\u067e\u0648\u0631\u06cc": 5295,
  "ho": 5296,
  "\u2581\u098f\u09ae\u09a8": 5297,
  "\u2581approach": 5298,
  "\u2581\u0996\u09cb\u09b2\u09be": 5299,
  "\u2581\u0909\u0938\u0938\u0947": 5300,
  "\u0627\u064a\u0648": 5301,
  "\u094d\u0935": 5302,
  "\u2581\u09a8\u09bf\u09b0\u09cd\u09ac\u09be\u099a\u09bf\u09a4": 5303,
  "\u258124:": 5304,
  "\u2581\u0633\u06af\u06be": 5305,
  "\u2581\u0a89": 5306,
  "\u2581female": 5307,
  "\u2581\u0987\u099a\u09cd\u099b\u09c1\u0995": 5308,
  "\u2581completed": 5309,
  "\u2581earned": 5310,
  "\u2581stated": 5311,
  "\u2581building": 5312,
  "\u258117.": 5313,
  "\u2581Version": 5314,
  "\u2581\u0a1a\u0a3e\u0a39\u0a41\u0a70\u0a26\u0a47": 5315,
  "\u2581visited": 5316,
  "\u2581departed": 5317,
  "\u2581journey": 5318,
  "\u2581reply": 5319,
  "kgm": 5320,
  "\u2581\u0645\u06c1\u0631\u0628\u0627\u0646": 5321,
  "\u2581\u0648\u067a\u0648": 5322,
  "\u2581Ma": 5323,
  "\u2581Custom": 5324,
  "\u2581Instead": 5325,
  "\u2581\u092a\u091f\u094d\u091f\u0940": 5326,
  "\u0999": 5327,
  "\u2581\u0936\u0939\u0930": 5328,
  "\u2581\u0932\u0915\u094d\u0937": 5329,
  "\u2581editor": 5330,
  "\u2581sword": 5331,
  "\u2581\u0905\u0917\u0926\u0940": 5332,
  "\u2581\u09a4\u09bf": 5333,
  "\u2581\u0639\u0644\u0627\u0648\u06c1": 5334,
  "\u2581\u0a2b\u0a3e\u0a07\u0a32\u0a3e\u0a02": 5335,
  "\u2581\u0db4\u0dd2\u0da7\u0dd4\u0dc0\u0dda": 5336,
  "that": 5337,
  "\u2581Should": 5338,
  "\u2581low": 5339,
  "\u2581benefits": 5340,
  "\u0dc3\u0dd4": 5341,
  "\u2581marry": 5342,
  "\u064a\u0627\u062f": 5343,
  "\u2581\u062d\u0635\u06c1": 5344,
  "\u2581\u0930\u0939": 5345,
  "\u258116.": 5346,
  "\u25819:": 5347,
  "\u2581Believers": 5348,
  "\u2581trial": 5349,
  "\u2581\u0a06\u0a2a\u0a23\u0a3e": 5350,
  "\u0923\u093e\u0931\u094d": 5351,
  "\u0ab0\u0ac7": 5352,
  "\u2581\u09ac\u09c8\u09a7": 5353,
  "\u2581\u0b2c": 5354,
  "\u2581\u0a16\u0a3c\u0a41\u0a38\u0a3c": 5355,
  "\u2581\u091f\u0948\u092c": 5356,
  "\u2581\u0622\u06cc\u062a\u0648\u06ba": 5357,
  "\u2581Authentication": 5358,
  "\u2581\u0a38\u0a71\u0a1a": 5359,
  "\u2581\u0916\u094b\u091c": 5360,
  "\u2581\u0b07": 5361,
  "\u0648\u06cc": 5362,
  "\u0915\u094d\u0938": 5363,
  "\u2581Genesis": 5364,
  "\u2581\u0985\u09ac\u09b8\u09cd\u09a5\u09be\u09a8": 5365,
  "\u2581\u0938\u0915\u093e": 5366,
  "\u2581\u092a\u0940": 5367,
  "\u2581gele": 5368,
  "\u2581semno": 5369,
  "\u067d\u0648": 5370,
  "\u2581\u0909\u092a\u0932\u092c\u094d\u0927": 5371,
  "\u2581trees": 5372,
  "\u2581\u092a\u0924\u094d\u0924\u093e": 5373,
  "\u0dbd\u0dd4": 5374,
  "\u2581\u0631\u06a9\u0646\u062f\u0627": 5375,
  "\u2581\u068f\u0633\u0646\u062f\u0699": 5376,
  "\u0938\u0930": 5377,
  "\u091c\u0947": 5378,
  "\u2581\u0986\u09ae\u09be\u0995\u09c7": 5379,
  "\u09b8\u09cd\u09a4": 5380,
  "\u2581\u0aaa\u0ab0\u0a82\u0aa4\u0ac1": 5381,
  "\u0d9a\u0db8\u0dca": 5382,
  "\u2581\u0db8\u0ddc\u0db1": 5383,
  "\u2581\u0684\u0627\u062a\u0648": 5384,
  "go": 5385,
  "\u2581violence": 5386,
  "\u2581behalf": 5387,
  "\u0684": 5388,
  "\u2581\u0928\u093f\u092f\u092e": 5389,
  "\u2581ahead": 5390,
  "\u2581\u09b2\u09cb\u09a1": 5391,
  "\u06aa\u0641\u0631": 5392,
  "\u2581focus": 5393,
  "\u2581\u0dad\u0dc0\u0dad\u0dca": 5394,
  "\u2581natural": 5395,
  "\u2581click": 5396,
  "\u2581\u092c\u0928\u093e\u090f": 5397,
  "\u2581standards": 5398,
  "\u091f\u093e": 5399,
  "\u2581Judgment": 5400,
  "\u2581proud": 5401,
  "View": 5402,
  "\u2581\u067e\u0648\u0631\u064a": 5403,
  "\u2581\u0648\u067a\u06bb": 5404,
  "\u2581\u092e\u0941\u0916\u094d\u092f": 5405,
  "\u2581Value": 5406,
  "\u2581\u09b8\u09ae\u09cd\u09ad\u09f1": 5407,
  "\u06cc\u062a": 5408,
  "\u2581Manager": 5409,
  "\u2581idols": 5410,
  "\u2581inker": 5411,
  "\u2581strazo": 5412,
  "\u2581\u06be\u064a\u0624": 5413,
  "\u2581\u0906\u0927\u093e\u0930": 5414,
  "\u0628\u0648": 5415,
  "\u2581\u062c\u0645\u0627\u0639\u062a": 5416,
  "\u2581\u0995\u09bf\u09a8\u09be": 5417,
  "\u2581\u06af\u0648\u0627\u06c1": 5418,
  "\u0648\u06c1": 5419,
  "\u0943": 5420,
  "\u2581Jeremiah": 5421,
  "\u2581\u0ab2\u0a96\u0abe\u0aa3": 5422,
  "\u2581\u092a\u094d\u0930\u0915\u093e\u0930\u0947": 5423,
  "\u2581\u0905\u0902\u0924": 5424,
  "\u2581Link": 5425,
  "\u2581\u09b8\u0982\u0995\u09cd\u09f0\u09be\u09a8\u09cd\u09a4": 5426,
  "\u2581\u091c\u093e\u0928\u0947": 5427,
  "\u2581grieve": 5428,
  "\u2581\u09b6\u09c7\u09b7": 5429,
  "\u2581character": 5430,
  "\u2581\u06aa\u064a\u0644": 5431,
  "\u2581master": 5432,
  "\u2581\u092a\u0948\u0926\u093e": 5433,
  "\u2581boy": 5434,
  "\u2581\u092f": 5435,
  "\u2581role": 5436,
  "\u2581\u0915\u0926\u093e\u091a\u093f\u0924": 5437,
  "\u2581\u0633\u0648\u0627\u0644": 5438,
  "\u2581amperato": 5439,
  "\u2581tsalia": 5440,
  "\u2581associated": 5441,
  "\u2581\u0622\u064a\u0627": 5442,
  "\u0b38\u0b3e": 5443,
  "\u2581\u0938\u0902\u0916\u094d\u092f\u093e": 5444,
  "\u2581correct": 5445,
  "\u2581\u0924\u094d\u092f\u093e\u0902\u091a\u0940": 5446,
  "\u2581info": 5447,
  "\u2581\u0648\u0631\u062a\u0648": 5448,
  "\u2581admonition": 5449,
  "\u0a95\u0acb": 5450,
  "\u2581\u0a32": 5451,
  "\u2581\u0b15\u0b3e\u0b30\u0b4d\u0b2f\u0b4d\u0b2f": 5452,
  "\u2581\u0d91\u0d9a\u0d9a\u0dca": 5453,
  "\u0b3e\u0b30": 5454,
  "2$": 5455,
  "\u2581Lot": 5456,
  "\u2581\u0ab5\u0abf": 5457,
  "\u2581touched": 5458,
  "\u2581sees": 5459,
  "\u2581\u0648\u0633\u0644\u0645": 5460,
  "ian": 5461,
  "\u2581\u067e\u06be\u06cc\u0631": 5462,
  "\u2581bound": 5463,
  "\u2581\u0dad\u0dd2\u0db6\u0dd9\u0db1\u0dc0\u0dcf": 5464,
  "\u2581mudaren": 5465,
  "\u0a96\u0abe": 5466,
  "\u2581quickly": 5467,
  "\u2581\u0db4\u0dad\u0dca": 5468,
  "\u2581quality": 5469,
  "\u2581privilege": 5470,
  "\u2581chose": 5471,
  "\u2581row": 5472,
  "\u2581\u0ab8\u0acd\u0aa5\u0abf\u0aa4\u0abf": 5473,
  "\u2581\u0b15\u0b30": 5474,
  "\u2581\u0b2a\u0b4d\u0b30\u0b15\u0b3e\u0b30": 5475,
  "\u2581\u06a9\u06be\u0648\u0644": 5476,
  "\u2581Desktop": 5477,
  "\u2581\u0905\u091c\u094d\u091e\u093e\u0924": 5478,
  "\u2581\u0905\u0928\u0941\u092a\u094d\u0930\u092f\u094b\u0917": 5479,
  "\u2581overcome": 5480,
  "\u0938\u094d\u091f": 5481,
  "\u2581decisions": 5482,
  "\u0a82\u0a97": 5483,
  "\u2581\u092a\u0930\u0935\u0930\u0926\u093f\u0917\u093e\u0930": 5484,
  "\u2581include": 5485,
  "\u2581\u0628\u0686\u0627": 5486,
  "em": 5487,
  "\u2581\u09a4\u09be\u0987": 5488,
  "\u2581\u0b36\u0b40\u0b30\u0b4d\u0b37\u0b15": 5489,
  "\u094d\u092f\u0924\u093e\u092e\u094d": 5490,
  "\u2581Murh": 5491,
  "\u2581Stop": 5492,
  "\u2581leaders": 5493,
  "\u2581\u0909\u092a": 5494,
  "\u2581dela": 5495,
  "\u2581\u0905\u0939\u093e\u0901\u0915": 5496,
  "\u2581\u0b30\u0b19\u0b4d\u0b17": 5497,
  "\u2581preached": 5498,
  "\u2581begin": 5499,
  "\u2581\u0dc0\u0dd9\u0db1\u0dca\u0db1\u0dda": 5500,
  "\u2581\u0a1c\u0a3e\u0a23\u0a15\u0a3e\u0a30\u0a40": 5501,
  "\u2581\u06af\u0627\u06d4": 5502,
  "\u2581\u092c\u0902\u0926": 5503,
  "\u0b20": 5504,
  "\u2581\u092c\u0940\u091a": 5505,
  "\u2581\u0a15": 5506,
  "\u0a2d": 5507,
  "\u2581\u06a9\u06cc\u0648\u0646\u06a9\u06c1": 5508,
  "\u2581\u0d94\u0dc4\u0dd4\u0da7": 5509,
  "\u2581\u0a30\u0a39\u0a40": 5510,
  "\u2581sacred": 5511,
  "\u2581Others": 5512,
  "\u2581\u0631\u0648\u0634\u0646": 5513,
  "\u2581\u092a\u094d\u0930\u0947\u0937\u093f\u0924": 5514,
  "\u2581\u091b": 5515,
  "\u2581\u0632\u0627\u0644": 5516,
  "\u2581congregations": 5517,
  "\u2581generation": 5518,
  "\u2581rasha": 5519,
  "\u09b8\u09bf": 5520,
  "\u2581\u0938\u094d\u0924\u094b\u0924\u094d\u0930": 5521,
  "\u2581Has": 5522,
  "\u2581\u0aa8\u0abe": 5523,
  "\u2581\u062e\u0648\u0634\u062e\u0628\u0631\u064a": 5524,
  "\u2581\u091c\u0948\u0938\u0947": 5525,
  "\u2581\u0aae\u0abe\u0ab9\u0abf\u0aa4\u0ac0": 5526,
  "\u2581disbelief": 5527,
  "\u2581\u0a05\u0a71\u0a17\u0a47": 5528,
  "\u2581silver": 5529,
  "\u0923\u094d\u092f\u093e\u091a\u093e": 5530,
  "\u2581\u0ab9\u0aa4\u0acb": 5531,
  "wise": 5532,
  "\u2581Contacts": 5533,
  "\u2581\u092c\u093f": 5534,
  "*": 5535,
  "\u2581k": 5536,
  "\u2581\u092a\u0902\u0915\u094d\u0924\u093f": 5537,
  "\u0acd\u0aaf\u0acb": 5538,
  "\u0938\u094b\u092c\u0924": 5539,
  "\u2581\u062c\u0646\u06af": 5540,
  "\u2581\u0dc3\u0dda\u0dc0\u0dba": 5541,
  "\u2581couple": 5542,
  "mos": 5543,
  "\u2581\u062c\u06b3\u0627\u0626\u064a": 5544,
  "\u2581\u09a8\u09bf\u09b0\u09cd\u09a7\u09be\u09b0\u09a3": 5545,
  "\u2581\u0924\u0941\u091d\u0947": 5546,
  "\u2581\u0a38\u0a15\u0a26\u0a40": 5547,
  "\u2581\u067e\u0646\u06be\u0646\u062c": 5548,
  "\u2581\u09b2\u09c7": 5549,
  "\u2581Faith": 5550,
  "\u2581books": 5551,
  "\u2581sort": 5552,
  "\u093e\u092e\u0941\u0933\u0947": 5553,
  "\u2581sagda": 5554,
  "\u2581\u06af\u0645\u0627\u0646": 5555,
  "\u2581\u0a1c\u0a3c\u0a2c\u0a42\u0a30": 5556,
  "\u093e\u0902\u0935\u0930": 5557,
  "\u2581suffered": 5558,
  "\u2581\u0622\u06af\u06d2": 5559,
  "\u2581\u0909\u0928\u0915\u093e": 5560,
  "\u2581\u0a2c\u0a70\u0a26": 5561,
  "\u2581proof": 5562,
  "\u2581\u062f\u0634\u0645\u0646": 5563,
  "\u09b9\u09c7": 5564,
  "\u2581\u0633\u0644\u0627\u0645": 5565,
  "\u2581\u0633\u068f\u064a\u0648": 5566,
  "\u2581\u0936\u093f\u0915\u094d\u0937\u093e": 5567,
  "\u2581thine": 5568,
  "\u2581web": 5569,
  "\u0648\u0699": 5570,
  "\u0940\u0928": 5571,
  "\u2581remembrance": 5572,
  "\u2581\u0627\u0648\u067e\u0631": 5573,
  "No": 5574,
  "\u2581\u0ae7": 5575,
  "\u2581obedience": 5576,
  "\u2581terrible": 5577,
  "\u2581sincere": 5578,
  "\u2581\u0646\u0641\u0633": 5579,
  "\u2581\u0639\u06c1\u062f": 5580,
  "\u2581broken": 5581,
  "\u2581\u068f\u0633\u0646\u062f\u0627": 5582,
  "\u2581\u0a16\u0a3c\u0a41\u0a38\u0a3c\u0a40": 5583,
  "\u2581pioneer": 5584,
  "\u2581expect": 5585,
  "\u2581shoxar": 5586,
  "\u2581vital": 5587,
  "if": 5588,
  "\u2581\u0b2f\u0b3e\u0b1e\u0b4d\u0b1a": 5589,
  "\u2581possess": 5590,
  "\u2581\u0a2d\u0a30\u0a3e": 5591,
  "\u0936\u0947": 5592,
  "\u2581\u0906\u092e\u094d\u0939\u093e\u0932\u093e": 5593,
  "\u2581\u0a1c": 5594,
  "\u2581\u0687\u068f\u064a\u0648": 5595,
  "\u2581\u0634\u06a9\u0631": 5596,
  "\u2581activities": 5597,
  "\u2581million": 5598,
  "et": 5599,
  "\u2581helper": 5600,
  "\u2581Hey": 5601,
  "\u0a95\u0acd\u0ab7": 5602,
  "\u2581Messages": 5603,
  "\u2581\u0989\u09ce\u09b8": 5604,
  "\u2581Hence": 5605,
  "\u2581\u0986\u09b0\u09ae\u09cd\u09ad": 5606,
  "\u2581\u0915\u0930\u0940\u0924": 5607,
  "\u2581\u0a26\u0a4b": 5608,
  "\u2581\u0dad\u0dd2\u0dba\u0dd9\u0db1": 5609,
  "\u09b6\u09be": 5610,
  "\u2581chapter": 5611,
  "\u0995\u09cd\u09b7": 5612,
  "\u0902\u0924": 5613,
  "\u2581\u0627\u067f\u0646": 5614,
  "\u0646\u064a\u0627": 5615,
  "\u2581obedient": 5616,
  "\u2581\u09aa\u09f0\u09c0\u0995\u09cd\u09b7\u09be": 5617,
  "\u0995\u09cb": 5618,
  "\u0645\u0627\u0646": 5619,
  "\u2581\u068f\u0646\u0648\u0633\u0648\u0646": 5620,
  "\u2581beshel": 5621,
  "\u2581nasulimos": 5622,
  "\u2581\u0a2a\u0a4b\u0a25\u0a40": 5623,
  "\u062c\u0646": 5624,
  "\u2581\u0a26\u0a41\u0a28\u0a40\u0a06\u0a02": 5625,
  "\u2581\u0a9c\u0a97\u0acd\u0aaf\u0abe": 5626,
  "\u2581\u0b1a\u0b3e\u0b39\u0b41\u0b01\u0b1b\u0b28\u0b4d\u0b24\u0b3f": 5627,
  "\u0da7\u0dd2": 5628,
  "\u2581\u0646\u0628\u06cc": 5629,
  "\u2581\u092f\u093e\u091c\u0915": 5630,
  "\u2581\u0d9a\u0dd2\u0dba\u0db1": 5631,
  "\u2581laws": 5632,
  "\u0b28\u0b4d\u0b24": 5633,
  "\u0644\u0627\u0645": 5634,
  "\u091b": 5635,
  "\u2581\u0924\u094d\u092f\u093e\u0902\u091a\u093e": 5636,
  "\u0622": 5637,
  "\u2581\u0628\u06cc": 5638,
  "\u2581\u0680\u0644\u0648": 5639,
  "\u2581\u0645\u0627\u06bb\u06be\u0648\u0621": 5640,
  "\u2581Signs": 5641,
  "\u2581strengthen": 5642,
  "\u2581Knower": 5643,
  "\u2581\u0909\u0928\u0938\u0947": 5644,
  "\u2581\u067b\u0646\u06be\u064a": 5645,
  "\u2581\u0b1a\u0b5f\u0b28": 5646,
  "\u2581Data": 5647,
  "\u2581\u0915\u094b\u0923": 5648,
  "\u2581\u099f\u09bf": 5649,
  "\u2581rat": 5650,
  "\u2581permissions": 5651,
  "\u2581\u0905\u0913\u091c\u093e\u0930\u092a\u091f\u094d\u091f\u0940": 5652,
  "\u2581\u0aa4\u0ac7\u0aa8\u0ac7": 5653,
  "\u2581\u0dc0\u0d9c\u0dda\u0db8": 5654,
  "\u2581\u0905\u0932\u0917": 5655,
  "\u2581losers": 5656,
  "\u2581andre": 5657,
  "\u2581beshen": 5658,
  "\u2581ramome": 5659,
  "\u2581vorba": 5660,
  "\u2581replace": 5661,
  "\u2581\u0936\u0915\u0924\u0947": 5662,
  "\u2581filter": 5663,
  "\u2581although": 5664,
  "\u2581\u0995\u09cd\u09b2\u09bf\u0995": 5665,
  "\u2581\u0d9a\u0dc5\u0dda": 5666,
  "\u2581\u0939\u094b\u0924": 5667,
  "\u2581worked": 5668,
  "\u2581\u0905\u0928\u0941": 5669,
  "\u0995\u09c3\u09a4": 5670,
  "\u2581\u0924\u092f\u093e\u0930": 5671,
  "\u2581\u09b8\u09cd": 5672,
  "\u2581becomes": 5673,
  "\u2581birds": 5674,
  "\u2581recognize": 5675,
  "\u2581\u0915\u0930\u0923\u094d\u092f\u093e\u091a\u0940": 5676,
  "\u064a\u0627": 5677,
  "\u092a\u0940": 5678,
  "\u2581cover": 5679,
  "\u2581log": 5680,
  "\u2581\u0921\u093e\u0932": 5681,
  "\u2581Ame": 5682,
  "\u2581\u09aa\u09be\u09b0": 5683,
  "\u2581tribe": 5684,
  "\u2581\u0b06\u0b2e\u0b47\u0b30\u0b3f\u0b15\u0b3e": 5685,
  "They": 5686,
  "\u2581\u0ab6\u0a95\u0abe\u0aaf": 5687,
  "\u2581Full": 5688,
  "\u2581girl": 5689,
  "\u2581thousands": 5690,
  "\u2581\u06af\u0631\u0648\u06c1": 5691,
  "\u2581\u0a1c\u0a3f\u0a28\u0a4d\u0a39": 5692,
  "\u2581\u0622\u0647\u064a": 5693,
  "\u09ac\u09cb\u09f0": 5694,
  "\u2581manglia": 5695,
  "\u093f\u092f\u093e\u0901": 5696,
  "\u2581\u0938\u094d\u0924\u094d\u0930\u0940": 5697,
  "\u2581\u092a\u0941\u0922\u0947": 5698,
  "\u2581Phone": 5699,
  "\u2581English": 5700,
  "\u2581di": 5701,
  "\u2581\u09b8\u09ae\u09cd\u09aa\u09c2\u09f0\u09cd\u09a3": 5702,
  "\u0a15\u0a3e\u0a30": 5703,
  "\u2581\u06af\u06be\u0631\u0646": 5704,
  "\u2581\u0a30\u0a39\u0a3f\u0a23": 5705,
  "\u2581lord": 5706,
  "\u2581\u062c\u06c1\u0646\u0645": 5707,
  "\u2581\u06af\u0646\u0627\u06be": 5708,
  "\u0631\u0646": 5709,
  "\u0645\u0627\u06bb\u06be\u0646": 5710,
  "\u2581\u092f\u0939\u0940": 5711,
  "\u2581South": 5712,
  "\u2581\u0aac\u0ac7": 5713,
  "\u2581\u0633\u0646\u0627": 5714,
  "\u2581\u0985\u09cd\u09af\u09be": 5715,
  "\u2581\u0989\u09aa": 5716,
  "\u2581\u062c\u06cc": 5717,
  "\u2581concern": 5718,
  "\u2581\u092a\u0941\u0938\u094d\u0924\u0915\u091a\u093f\u0939\u094d\u0928": 5719,
  "\u2581\u0a38\u0a3f\u0a30\u0a2b\u0a3c": 5720,
  "\u2581played": 5721,
  "As": 5722,
  "\u2581\u09b8\u0999\u09cd\u0997\u09c7": 5723,
  "\u2581Light": 5724,
  "\u2581\u0622\u0626\u06cc\u06ba": 5725,
  "\u2581\u0905\u0938\u0924\u093e\u0928\u093e": 5726,
  "\u2581proxy": 5727,
  "\u2581\u062f\u06cc\u06a9\u06be\u062a\u06d2": 5728,
  "\u2581length": 5729,
  "\u2581\u0935\u093f\u0935\u0930\u0923": 5730,
  "\u2581\u0631\u06a9\u06be\u0646\u06d2": 5731,
  "\u2581\u0926\u094d\u092f\u093e": 5732,
  "\u2581success": 5733,
  "\u2581\u0935\u093e\u0917": 5734,
  "\u2581\u09b8\u0995\u09b2": 5735,
  "\u2581\u0a38\u0a3c": 5736,
  "\u2581\u0935\u0930\u094d\u0923\u0928": 5737,
  "\u068f\u0627\u0646\u06be\u0633": 5738,
  "\u2581Chinese": 5739,
  "\u2581Jewish": 5740,
  "\u2581output": 5741,
  "\u2581\u06af\u0632\u0631": 5742,
  "\u2581\u09a4\u09cd\u09b0\u09c1\u099f\u09bf": 5743,
  "\u0627\u06bb\u064a": 5744,
  "\u09f1": 5745,
  "\u2581original": 5746,
  "\u2581appreciate": 5747,
  "\u2581\u0a38\u0a2e\u0a1d": 5748,
  "\u0921\u0947": 5749,
  "\u2581\u092d\u093e\u0908": 5750,
  "\u2581\u0d91\u0d9a\u0dca": 5751,
  "\u2581\u0938\u0915\u094d\u0930\u093f\u092f": 5752,
  "\u0b16": 5753,
  "\u2581\u091c\u093e\u0938\u094d\u0924": 5754,
  "\u2581\u0932\u0917\u0947": 5755,
  "\u0b21\u0b3c": 5756,
  "\u2581\u0915\u0930\u0947\u0917\u093e": 5757,
  "\u2581\u0995\u09cd\u09b7\u09c7\u09a4\u09cd\u09b0\u09c7": 5758,
  "\u092c\u0940": 5759,
  "\u2581\u0915\u0943\u092a\u092f\u093e": 5760,
  "\u2581\u0dc4\u0ddc\u0db3": 5761,
  "\u2581assembly": 5762,
  "\u2581\u0989\u099a\u09bf\u09a4": 5763,
  "\u09ac\u09be\u09f0": 5764,
  "\u2581\u0627\u0686\u06be\u0627": 5765,
  "\u2581branch": 5766,
  "\u2581\u09b8\u09cd\u09a5\u09be\u09a8\u09c0\u09af\u09bc": 5767,
  "\u09aa\u09cd\u09b0": 5768,
  "\u2581lesson": 5769,
  "\u2581relatives": 5770,
  "\u2581\u0645\u0648\u062c\u0648\u062f": 5771,
  "\u2581\u090f\u0915\u0930\u093e": 5772,
  "\u0acd\u0aaf": 5773,
  "\u2581\u0905\u0917\u093f\u0932\u093e": 5774,
  "\u2581\u09eb": 5775,
  "\u2581\u068f": 5776,
  "\u2581enable": 5777,
  "\u2581\u09ac\u09be\u09b8": 5778,
  "\u2581\u062a\u0648\u0628\u06c1": 5779,
  "\u2581\u0635\u0627\u0641": 5780,
  "\u2581prostrate": 5781,
  "\u2581\u0db6\u0dba\u0dd2\u0db6\u0dbd\u0dba\u0dda": 5782,
  "\u2581front": 5783,
  "\u2581\u0a2b": 5784,
  "\u2581knoweth": 5785,
  "\u2581refused": 5786,
  "\u0995\u09cd\u09b8": 5787,
  "\u2581\u09a5": 5788,
  "\u2581battle": 5789,
  "\u2581\u062c\u0644\u062f": 5790,
  "\u2581\u0633\u062c": 5791,
  "\u0928\u0947\u0935\u093e\u0932\u0947": 5792,
  "\u2581\u0936\u0915\u094d": 5793,
  "\u2581\u0a26\u0a4c\u0a30\u0a3e\u0a28": 5794,
  "\u0dba\u0dba": 5795,
  "\u0633\u0645": 5796,
  "\u0924\u094d\u0924": 5797,
  "\u2581victory": 5798,
  "\u0aa8\u0acd\u0a9f": 5799,
  "\u06a9\u0627\u0631": 5800,
  "\u2581\u062a\u062c\u06be\u06d2": 5801,
  "\u2581Audio": 5802,
  "\u2581sinful": 5803,
  "\u062e\u062f\u0627": 5804,
  "\u2581countries": 5805,
  "\u2581\u0aa1\u0abf\u0ab8\u0acd\u0a95": 5806,
  "\u0983": 5807,
  "\u0da9\u0dd2": 5808,
  "\u2581gazda": 5809,
  "\u2581kanchi": 5810,
  "\u2581kerdiol": 5811,
  "\u0627\u0626\u06d2": 5812,
  "\u2581Font": 5813,
  "\u2581general": 5814,
  "less": 5815,
  "\u0db9": 5816,
  "\u2581activity": 5817,
  "\u2581companions": 5818,
  "\u091f\u0930": 5819,
  "\u0dda\u0daf\u0dd3": 5820,
  "\u2581\u062a\u0648\u0628\u0647": 5821,
  "\u2581belief": 5822,
  "\u2581exercise": 5823,
  "\u2581\u0627\u0686\u064a": 5824,
  "\u2581Couldn": 5825,
  "\u2581\u0622\u062f\u0645\u06cc": 5826,
  "\u062a\u0648\u062a\u064a": 5827,
  "\u067e\u0648": 5828,
  "\u0648\u062f": 5829,
  "\u2581\u0906\u0915\u093e\u0936": 5830,
  "\u2581\u0928\u094d\u092f\u093e\u092f": 5831,
  "\u2581\u0b2e": 5832,
  "\u0a86": 5833,
  "\u2581earthly": 5834,
  "\u2581occasion": 5835,
  "\u2581\u06c1\u0644\u0627\u06a9": 5836,
  "\u2581realize": 5837,
  "\u2581media": 5838,
  "\u2581\u062c\u06be\u0699\u064a": 5839,
  "\u2581\u0631\u06a9\u0646\u062f\u0648": 5840,
  "\u2581\u0a38\u0a2e\u0a3e\u0a02": 5841,
  "\u0931\u094d": 5842,
  "\u0645\u0644\u0627\u0626\u06aa\u0646": 5843,
  "\u092a\u0930\u094d\u092f\u0902\u0924": 5844,
  "\u093e\u0928\u093f": 5845,
  "\u2581\u099a\u09be\u09b2": 5846,
  "\u2581car": 5847,
  "\u2581\u0924\u094d\u092f\u093e\u0902\u091a\u0947": 5848,
  "\u2581ashunen": 5849,
  "\u2581\u0a38\u0a2b\u0a3c\u0a3e": 5850,
  "\u2581w": 5851,
  "\u2581sustenance": 5852,
  "\u2581\u0686\u06cc\u0632\u0648\u06ba": 5853,
  "\u2581heads": 5854,
  "line": 5855,
  "\u2581revelation": 5856,
  "\u0dc0\u0da7": 5857,
  "\u2581invited": 5858,
  "\u09be\u0987": 5859,
  "\u2581parable": 5860,
  "\u2581\u0996": 5861,
  "\u2581\u0db8\u0ddc\u0d9a\u0d9a\u0dca\u0daf": 5862,
  "\u2581disease": 5863,
  "\u2581\u0926\u094b\u0928\u094b\u0902": 5864,
  "\u2581Co": 5865,
  "\u2581completely": 5866,
  "\u2581\u0938\u0941\u0930\u0915\u094d\u0937\u093f\u0924": 5867,
  "\u2581community": 5868,
  "\u2581\u09aa\u09cd\u09f0\u09c7\u09f0\u09a3": 5869,
  "\u2581\u0646\u0634\u0627\u0646\u06cc": 5870,
  "\u2581\u0995\u09ae": 5871,
  "\u25816,": 5872,
  "00": 5873,
  "\u2581Internet": 5874,
  "\u2581determine": 5875,
  "File": 5876,
  "\u2581\u0644\u06cc": 5877,
  "\u2581\u0622\u067e\u0633": 5878,
  "\u2581blame": 5879,
  "\u2581\u0630\u06a9\u0631": 5880,
  "\u2581\u0a05\u0a1c\u0a3f\u0a39": 5881,
  "\u2581\u092f\u093e\u091a\u093e": 5882,
  "\u2581\u0a2a\u0a30\u0a3f\u0a35\u0a3e\u0a30": 5883,
  "\u2581\u0d87\u0dad": 5884,
  "\u2581vediara": 5885,
  "sas": 5886,
  "\u0a2b\u0a3c": 5887,
  ")?": 5888,
  "\u2581\u0a32\u0a3f\u0a06": 5889,
  "\u2581busy": 5890,
  "\u2581board": 5891,
  "\u2581\u0915\u0930\u0947": 5892,
  "\u2581\u062a\u0627\u0646": 5893,
  "\u2581\u09ac\u09cd\u09af\u0995\u09cd\u09a4\u09bf": 5894,
  "\u2581wonder": 5895,
  "\u2581\u09b9\u09a4\u09c7": 5896,
  "\u2581\u0989": 5897,
  "\u2581spake": 5898,
  "\u2581\u0631\u0648": 5899,
  "am": 5900,
  "\u0932\u090f": 5901,
  "\u0a17\u0a47": 5902,
  "\u0a06": 5903,
  "\u2581\u0a28\u0a3f\u0a39\u0a1a\u0a3e": 5904,
  "\u2581\u0aac\u0ab9\u0abe\u0ab0": 5905,
  "\u2581waste": 5906,
  "\u2581\u0aa5\u0ac0": 5907,
  "text": 5908,
  "\u2581backs": 5909,
  "\u2581explains": 5910,
  "\u2581\u0d85\u0dba\u0da7": 5911,
  "\u2581Title": 5912,
  "\u2581Judea": 5913,
  "\u2581\u0b2c\u0b3f\u0b28\u0b4d\u0b5f\u0b3e\u0b38": 5914,
  "\u0930\u094d\u0915": 5915,
  "\u0687": 5916,
  "\u2581stones": 5917,
  "\u2581\u0985\u09a8\u09c1\u09af\u09be\u09af\u09bc\u09c0": 5918,
  "si": 5919,
  "\u2581\u0635\u0628\u062d": 5920,
  "out": 5921,
  "\u2581iakha": 5922,
  "\u2581\u0995\u09c7\u09a8": 5923,
  "\u25812,": 5924,
  "\u0b15\u0b30": 5925,
  "\u2581explain": 5926,
  "\u2581\u092e\u0948": 5927,
  "\u2581\u0917\u0947\u0932\u093e": 5928,
  "\u2581Roman": 5929,
  "\u2581\u0909\u0928\u0915\u094b": 5930,
  "\u2581Ubuntu": 5931,
  "\u2581slaves": 5932,
  "\u0930\u093f": 5933,
  "\u2581\u06f6": 5934,
  "\u2581responsibility": 5935,
  "\u2581\u091c\u093c\u094d\u092f\u093e\u0926\u093e": 5936,
  "Jehovah": 5937,
  "\u2581\u0686\u06a9\u06d2": 5938,
  "\u2581\u092a\u0924\u094d\u0928\u0940": 5939,
  "\u2581\u0928\u093f\u0915\u093e\u0932": 5940,
  "\u2581army": 5941,
  "\u2581submit": 5942,
  "\u2581panel": 5943,
  "\u2581\u0627\u06be\u0699\u0648": 5944,
  "\u2581\u099a\u09c7\u09b7\u09cd\u099f\u09be": 5945,
  "\u092e\u0927\u0940\u0932": 5946,
  "\u25819,": 5947,
  "\u2581\u0622\u0633\u0627\u0646": 5948,
  "\u2581\u09ac\u09cd\u09af\u09ac\u09b8\u09cd\u09a5\u09be": 5949,
  "\u2581\u0a1f": 5950,
  "\u2581\u09b8\u0995\u09cd\u09f0\u09bf\u09af\u09bc": 5951,
  "\u099f\u09c7": 5952,
  "\u0b2e\u0b3e": 5953,
  "\u0a3f\u0a15": 5954,
  "\u2581\u0938\u093e\u0902\u0917": 5955,
  "\u2581inhabitants": 5956,
  "\u2581\u0d85\u0dad\u0dca": 5957,
  "\u06be\u064a\u0621": 5958,
  "\u0627\u0626\u064a\u0646": 5959,
  "\u2581\u0a07": 5960,
  "\u2581percent": 5961,
  "\u2581successful": 5962,
  "\u2581\u0915\u094b\u0923\u0940": 5963,
  "\u2581Never": 5964,
  "\u2581games": 5965,
  "\u2581Ka": 5966,
  "\u2581humility": 5967,
  "\u2581\u06a9\u06c1\u0648": 5968,
  "\u0a3e\u0a09\u0a23": 5969,
  "\u2581\u0928\u0917\u0930": 5970,
  "\u2581\u067e\u0691\u06d2": 5971,
  "\u2581\u09aa\u09b0\u09bf\u099a\u09bf\u09a4\u09bf": 5972,
  "\u2581\u0a1a\u0a41\u0a23\u0a4b": 5973,
  "\u2581\u092a\u094d\u0930\u093e\u0930\u0902\u092d": 5974,
  "\u2581akhardia": 5975,
  "\u2581efta": 5976,
  "\u2581pachanpe": 5977,
  "\u2581thon": 5978,
  "\u2581\u0aad": 5979,
  "\u0abe\u0ab5": 5980,
  "iCal": 5981,
  "\u0938\u094d\u0915": 5982,
  "\u2581\u092a\u0941\u0938\u094d\u0924\u0915": 5983,
  "\u2581\u092c\u0921\u093c\u0940": 5984,
  "\u2581\u09aa\u09be\u09f0\u09c7": 5985,
  "\u2581lying": 5986,
  "\u2581\u092a\u093e\u0928": 5987,
  "\u2581\u09b8\u09cd\u09a5\u09be\u09aa\u09a8": 5988,
  "con": 5989,
  "\u0b19\u0b4d\u0b15": 5990,
  "\u2581\u09ac\u09cd\u09af\u09f1\u09b9\u09c3\u09a4": 5991,
  "\u2581\u092c\u0926\u0932\u0942": 5992,
  "\u2581\u0b16\u0b4b\u0b32\u0b28\u0b4d\u0b24\u0b41": 5993,
  "\u2581\u092e\u0938\u0940\u0939\u0940": 5994,
  "Lord": 5995,
  "\u2581male": 5996,
  "\u2581\u0938\u093e\u092b": 5997,
  "\u2581specify": 5998,
  "\u2581\u0d8b\u0daf\u0dc0\u0dca": 5999,
  "\u2581\u0a39\u0a4b\u0a08": 6000,
  "so": 6001,
  "\u09c3": 6002,
  "\u2581\u0db4\u0dd0": 6003,
  "\u2581prevent": 6004,
  "\u2581\u0aaa\u0abe\u0ab8\u0ac7": 6005,
  "\u2581choice": 6006,
  "\u2581>": 6007,
  "\u2581input": 6008,
  "\u09c1\u09a8": 6009,
  "\u2581\u0938\u094d\u0915\u094d\u0930\u0940\u0928": 6010,
  "\u2581ta": 6011,
  "\u0d9f": 6012,
  "\u2581\u0ab5\u0aaa\u0ab0\u0abe\u0ab6\u0a95\u0ab0\u0acd\u0aa4\u0abe": 6013,
  "\u2581\u0938\u094d\u092a\u0937\u094d\u091f": 6014,
  "\u2581reported": 6015,
  "\u2581\u0639\u0632\u062a": 6016,
  "\u2581Amen": 6017,
  "\u2581\u0634\u0627\u06cc\u062f": 6018,
  "\u062c\u0631": 6019,
  "\u2581press": 6020,
  "\u2581\u09a4\u09c8\u09b0\u09bf": 6021,
  "\u2581existing": 6022,
  "\u2581joined": 6023,
  "\u2581\u09b9\u09c8": 6024,
  "\u0646\u06c1\u0648\u06ba": 6025,
  "\u0aaf\u0abe": 6026,
  "\u2581final": 6027,
  "\u2581\u092e\u094d\u0939\u0923\u0924\u094b": 6028,
  "\u2581appeared": 6029,
  "\u2581\u0a2e\u0a41\u0a5c": 6030,
  "\u2581\u0b15\u0b30\u0b3f\u0b2c\u0b3e\u0b15\u0b41": 6031,
  "\u2581express": 6032,
  "\u2581murhi": 6033,
  "\u2581\u0632\u0648\u0631": 6034,
  "\u2581\u0a26\u0a42\u0a38\u0a30": 6035,
  "\u2581commandments": 6036,
  "\u2581\u0967\u096d": 6037,
  "\u2581Nor": 6038,
  "ISO": 6039,
  "\u2581\u0926\u0941\u0928\u093f\u092f\u093e": 6040,
  "\u2581\u062c\u06c1\u0627\u06ba": 6041,
  "\u2581\u0938\u092e\u0938\u094d\u092f\u093e": 6042,
  "\u2581\u0a39\u0a4b\u0a35\u0a47": 6043,
  "\u2581Samuel": 6044,
  "\u2581\u0631\u0627\u0633\u062a\u06c1": 6045,
  "\u2581\u0633\u0628\u0628": 6046,
  "\u2581heavy": 6047,
  "\u0d82\u0d9c": 6048,
  "\u2581ought": 6049,
  "\u2581\u0d9a\u0dbd\u0dd2\u0db1\u0dca": 6050,
  "\u2581\u0db4\u0dcf": 6051,
  "\u2581Rotate": 6052,
  "\u2581\u0aae\u0ab9\u0ac7\u0ab0\u0aac\u0abe\u0aa8\u0ac0": 6053,
  "\u2581lands": 6054,
  "\u2581\u091c\u093e\u0924": 6055,
  "\u2581\u0936\u0941\u0930\u0942": 6056,
  "\u2581\u0d9a\u0dd2\u0dba\u0db1\u0dca\u0db1\u0dda": 6057,
  "\u0628\u0644\u06aa\u0644": 6058,
  "\u09ad\u09be\u09f1\u09c7": 6059,
  "\u2581protection": 6060,
  "\u0639\u0646\u0642\u0631\u06cc\u0628": 6061,
  "\u2581wilderness": 6062,
  "\u2581\u0aaa\u0abe\u0ab8\u0ab5\u0ab0\u0acd\u0aa1": 6063,
  "\u2581trushul": 6064,
  "\u2581\u09aa\u09be\u09b8\u0993\u09af\u09bc\u09be\u09b0\u09cd\u09a1": 6065,
  "\u0aa4\u0acd": 6066,
  "\u2581corruption": 6067,
  "\u2581disciple": 6068,
  "\u2581\u099f\u09c7\u0995\u09cd\u09b8\u099f": 6069,
  "\u2581\u0628\u062f\u0644": 6070,
  "\u2581Status": 6071,
  "\u2581reasons": 6072,
  "\u2581\u092a\u0921": 6073,
  "\u2581\u09a6\u09c7\u0996\u09c1\u09f1\u09be\u0993\u0995": 6074,
  "\u2581\u09ae\u099a\u09bf": 6075,
  "\u2581inheritance": 6076,
  "\u2581\u06be\u064a\u067a\u0627": 6077,
  "\u0945": 6078,
  "\u2581folk": 6079,
  "\u2581email": 6080,
  "\u2581claim": 6081,
  "\u2581\u0985\u09ac": 6082,
  "\u2581\u06af\u0645\u0631\u0627\u06be": 6083,
  "\u2581\u09a8\u09bf\u09f0\u09cd\u09ae\u09be\u09a3": 6084,
  "\u2581moral": 6085,
  "\u2581\u0d9a\u0dd4\u0db8\u0d9a\u0dca\u0daf": 6086,
  "\u0648\u0637": 6087,
  "\u2581dialogue": 6088,
  "\u2581Call": 6089,
  "Help": 6090,
  "\u2581\u0906\u0924\u094d\u092e\u093e": 6091,
  "\u2581\u0932\u093f\u0902\u0915": 6092,
  "\u2581\u0628\u06be\u0644\u0627": 6093,
  "\u2581\u0915\u0930\u0941": 6094,
  "\u067e\u0646\u06be\u0646\u062c\u064a": 6095,
  "\u2581\u06a9\u0627\u0631": 6096,
  "\u2581\u092e\u094b\u0921": 6097,
  "\u2581recite": 6098,
  "\u2581\u09b8\u09b9": 6099,
  "\u2581plan": 6100,
  "\u2581seconds": 6101,
  "\u2581turning": 6102,
  "ah": 6103,
  "\u2581barimos": 6104,
  "\u2581iag": 6105,
  "\u25815,": 6106,
  "\u2581Preview": 6107,
  "\u2581glorify": 6108,
  "\u2581\u067e\u06cc\u0631\u0648\u06cc": 6109,
  "\u06b3": 6110,
  "\u2581practice": 6111,
  "\u2581\u0909\u0920": 6112,
  "\u2581influence": 6113,
  "\u0924\u0942\u0928": 6114,
  "\u2581\u0a2c\u0a23": 6115,
  "\u2581\u0a95\u0abf\u0a82\u0aae\u0aa4": 6116,
  "\u2581\u09ac\u09be\u09f0\u09cd\u09a4\u09be\u09f0": 6117,
  "\u2581Try": 6118,
  "\u2581\u0ab5\u0ab0\u0acd\u0aa4\u0aae\u0abe\u0aa8": 6119,
  "Save": 6120,
  "\u0645\u062a": 6121,
  "\u093f\u0938": 6122,
  "\u2581Muslims": 6123,
  "\u2581\u0a15\u0a30\u0a26\u0a40": 6124,
  "nsa": 6125,
  "\u2581\u0935\u093e\u091a": 6126,
  "\u092a\u0947\u0915\u094d\u0937\u093e": 6127,
  "\u2581\u0a35\u0a47\u0a16\u0a4b": 6128,
  "\u067e\u064a\u063a\u0645\u0628\u0631": 6129,
  "\u2581Details": 6130,
  "\u2581\u0a32\u0a3f\u0a16\u0a3f\u0a06": 6131,
  "\u2581\u0936\u0940\u0930\u094d\u0937\u0915": 6132,
  "\u2581\u0622\u0631\u0627\u0645": 6133,
  "\u2581\u0905\u0938\u092b\u0932": 6134,
  "\u2581dikhle": 6135,
  "Moses": 6136,
  "\u2581\u0926\u0947\u0924\u094b": 6137,
  "\u2581Nevertheless": 6138,
  "\u2581Messiah": 6139,
  "\u2581wishes": 6140,
  "\u0a35\u0a30": 6141,
  "\u2581devotion": 6142,
  "\u2581\u0932\u093e\u0935": 6143,
  "\u2581\u0ab8\u0abe": 6144,
  "\u2581modern": 6145,
  "\u2581\u0631\u06a9\u06be\u0648": 6146,
  "\u2581sufficient": 6147,
  "\u2581\u0935\u0930": 6148,
  "\u2581\u09a4\u09c7\u0993\u0981": 6149,
  "\u0a07": 6150,
  "\u2581automatically": 6151,
  "Go": 6152,
  "\u0b30\u0b3f": 6153,
  "\u0d9c\u0dd2": 6154,
  "\u2581attachment": 6155,
  "\u0a71\u0a15": 6156,
  "\u2581missing": 6157,
  "\u2581\u0967\u096c": 6158,
  "\u2581dispute": 6159,
  "\u0966": 6160,
  "\u2581shell": 6161,
  "\u2581\u0905\u091a\u094d\u091b\u093e": 6162,
  "\u2581amount": 6163,
  "\u2581\u0645\u0648\u067d\u06bb": 6164,
  "\u2581\u0926\u093e\u0935\u0940\u0926": 6165,
  "\u2581\u0b2a\u0b4d\u0b30": 6166,
  "\u2581\u0627\u0633\u062a\u0639\u0645\u0627\u0644": 6167,
  "\u0633\u0628": 6168,
  "\u2581scribes": 6169,
  "\u2581shtar": 6170,
  "\u0a2c\u0a3e": 6171,
  "\u0a35\u0a47": 6172,
  "\u0db1\u0dd9": 6173,
  "\u2581Elijah": 6174,
  "\u2581answers": 6175,
  "\u2581devil": 6176,
  "\u2581\u0916\u094d\u0930\u093f\u0938\u094d\u0924": 6177,
  "\u2581Maria": 6178,
  "\u2581\u062e\u062f\u0645\u062a": 6179,
  "\u2581\u0a1c\u0a26": 6180,
  "\u0a95\u0abe": 6181,
  "\u0dd8": 6182,
  "\u2581\u0b39\u0b47\u0b2c\u0b3e": 6183,
  "\u0db1\u0db8\u0dca": 6184,
  "\u2581appreciation": 6185,
  "\u2581\u0db1\u0dd0": 6186,
  "\u2581\u0a2c\u0a71\u0a1a\u0a3f\u0a06\u0a02": 6187,
  "\u2581\u0687\u064a\u0626": 6188,
  "\u2581whereas": 6189,
  "\u0ddc": 6190,
  "\u2581\u092a\u0942\u0930\u0940": 6191,
  "\u2581\u09a0\u09bf\u0995": 6192,
  "\u2581positive": 6193,
  "\u2581psalmist": 6194,
  "\u0a2e\u0a40": 6195,
  "\u2581handle": 6196,
  "\u2581\u0dc4\u0dd0\u0d9a\u0dd2\u0dba\u0dd2": 6197,
  "\u2581Device": 6198,
  "\u0631\u06d2": 6199,
  "\u2581\u0a2c\u0a47": 6200,
  "\u2581\u0916\u093e\u0938": 6201,
  "\u2581xan": 6202,
  "\u2581\u09ac\u09b0\u09cd\u09a4\u09ae\u09be\u09a8": 6203,
  "va": 6204,
  "\u2581jinn": 6205,
  "\u2581\u0a2d\u0a30\u0a3e\u0a35\u0a3e\u0a02": 6206,
  "\u2581distress": 6207,
  "\u2581\u092e\u093e\u091d\u0940": 6208,
  "\u2581\u0688\u0631\u062a\u06d2": 6209,
  "\u2581\u0930\u0916": 6210,
  "\u2581experienced": 6211,
  "\u2581\u09a1\u09bf\u09ad\u09be\u0987\u099a": 6212,
  "\u2581\u0b2c\u0b3e\u0b1b\u0b28\u0b4d\u0b24\u0b41": 6213,
  "\u2581dias": 6214,
  "\u2581\u0b2e\u0b3e\u0b28\u0b19\u0b4d\u0b15": 6215,
  "\u2581commands": 6216,
  "\u2581\u0b24\u0b3e\u0b30\u0b3f\u0b16": 6217,
  "\u09b8\u09cd\u0995": 6218,
  "\u2581students": 6219,
  "\u2581\u0648\u0631": 6220,
  "\u2581Toolbar": 6221,
  "\u2581Noble": 6222,
  "\u2581phenen": 6223,
  "\u2581woe": 6224,
  "\u2581dwelling": 6225,
  "\u2581paradise": 6226,
  "\u092f\u0915": 6227,
  "\u2581Woe": 6228,
  "\u2581attend": 6229,
  "\u2581persecution": 6230,
  "\u2581stayed": 6231,
  "\u25814,": 6232,
  "\u2581separate": 6233,
  "\u0d9a\u0dcf\u0dbb": 6234,
  "\u2581\u0ab8\u0aab\u0ac7\u0aa6": 6235,
  "\u2581\u0905\u0928\u0941\u092d\u0935": 6236,
  "\u2581thereby": 6237,
  "\u2581\u0928\u093f\u0915\u0932": 6238,
  "\u2581\u0a30\u0a71\u0a16\u0a23": 6239,
  "\u2581\u0639\u0644\u06cc\u06c1": 6240,
  "\u2581\u0dc0\u0dd9\u0db1\u0dc3\u0dca": 6241,
  "\u2581Credit": 6242,
  "\u2581\u0967\u096e": 6243,
  "\u2581Box": 6244,
  "\u2581angle": 6245,
  "\u2581\u0936\u094b\u0927": 6246,
  "\u2581\u0b38\u0b02\u0b15\u0b47\u0b24": 6247,
  "\u2581\u062f\u06cc\u0626\u06d2": 6248,
  "\u2581\u0906\u0917": 6249,
  "\u2581\u0938\u0902\u092a\u093e\u0926\u0928": 6250,
  "\u0628\u06c1": 6251,
  "\u2581\u06be\u062c\u0646": 6252,
  "\u0b5f\u0b3e": 6253,
  "\u2581\u0645\u0648\u06aa\u0644": 6254,
  "\u2581\u06af\u0631": 6255,
  "\u2581\u0daf\u0dd0\u0db1": 6256,
  "\u0dbb\u0dd2\u0dba": 6257,
  "men": 6258,
  "\u2581admit": 6259,
  "\u2581\u0921\u093e\u0915": 6260,
  "\u2581\u0dc0\u0dda": 6261,
  "\u0a2b": 6262,
  "\u0a3e\u0a07\u0a06": 6263,
  "\u2581simple": 6264,
  "\u093e\u092a\u093e\u0938\u0942\u0928": 6265,
  "\u2581\u067e\u0627\u0633\u064a": 6266,
  "\u2581\u0905\u0902\u0915": 6267,
  "\u2581\u0986\u09ac\u09b6\u09cd\u09af\u0995": 6268,
  "\u2581Manushesko": 6269,
  "\u2581cheri": 6270,
  "\u2581tampla": 6271,
  "\u2581step": 6272,
  "\u2581big": 6273,
  "\u2581\u0985\u09f1\u09b8\u09cd\u09a5\u09be": 6274,
  "\u2581\u0633\u0648\u0686": 6275,
  "\u2581permanently": 6276,
  "\u2581properties": 6277,
  "\u2581SSL": 6278,
  "\u2581courage": 6279,
  "\u2581\u0905\u0928\u094d\u092f": 6280,
  "Indeed": 6281,
  "\u2581\u062c\u0628\u0644": 6282,
  "\u2581\u0a26\u0a3f\u0a13": 6283,
  "\u2581waters": 6284,
  "\u2581\u0631\u06be\u064a\u0627": 6285,
  "\u2581\u0648\u0627\u0636\u062d": 6286,
  "Let": 6287,
  ")!": 6288,
  "\u258150": 6289,
  "\u2581\u0a32\u0a3e": 6290,
  "\u2581\u0aac\u0aa8\u0abe\u0ab5\u0acb": 6291,
  "\u09b0\u09cb": 6292,
  "\u2581\u09ad\u09c1\u09b2": 6293,
  "\u2581Though": 6294,
  "\u2581\u0917\u0908": 6295,
  "\u2581\u0915\u093e\u0933\u093e\u0924": 6296,
  "\u0dc3\u0dcf": 6297,
  "\u2581crowd": 6298,
  "\u2581\u09b8\u09cd\u09ac\u09be\u0995\u09cd\u09b7\u09f0": 6299,
  "\u2581mention": 6300,
  "\u2581parse": 6301,
  "ty": 6302,
  "\u092e\u0941": 6303,
  "\u2581Perhaps": 6304,
  "ine": 6305,
  "\u092c\u0941": 6306,
  "\u2581Bethel": 6307,
  "\u0926\u0940": 6308,
  "\u2581\u0ab2": 6309,
  "\u2581helping": 6310,
  "Pala": 6311,
  "\u2581\u06aa\u0628\u0648": 6312,
  "\u092c\u0947": 6313,
  "\u0986": 6314,
  "\u0b2c\u0b47": 6315,
  "\u2581\u09a8\u09bf\u09f0\u09cd\u09a7\u09be\u09f0\u09a3": 6316,
  "\u2581\u0a09": 6317,
  "\u2581\u0a35\u0a1c\u0a4b\u0a02": 6318,
  "\u2581chat": 6319,
  "\u2581freedom": 6320,
  "\u2581\u0b2a\u0b42\u0b30\u0b4d\u0b2c\u0b30\u0b41": 6321,
  "\u068f\u064a": 6322,
  "\u062f\u06d2": 6323,
  "\u2581pervo": 6324,
  "\u2581\u0633\u068f\u064a\u0646\u062f\u0627": 6325,
  "\u2581applications": 6326,
  "\u2581described": 6327,
  "like": 6328,
  "\u096f": 6329,
  "\u2581\u0a38\u0a2b\u0a3c\u0a47": 6330,
  "\u2581dur": 6331,
  "\u2581\u0915\u0947\u0935\u0933": 6332,
  "\u2581Keyboard": 6333,
  "\u2581\u0935\u0947\u0933\u0940": 6334,
  "\u2581\u0b15": 6335,
  "\u2581\u0628\u0644\u0646\u062f": 6336,
  "\u2581\u09a8\u09bf\u09b6\u09cd\u099a\u09bf\u09a4": 6337,
  "\u2581\u0628\u0627\u0644\u06a9\u0644": 6338,
  "\u2581seems": 6339,
  "\u2581\u0ab9\u0aa4\u0ac1\u0a82": 6340,
  "\u2581\u092e\u093f\u0924\u094d\u0930": 6341,
  "\u2581\u0d8a\u0da7": 6342,
  "\u2581\u0d94\u0dc0\u0dd4\u0db1\u0dca\u0da7": 6343,
  "\u2581\u0932\u093e\u0917\u0932\u0947": 6344,
  "\u2581gifts": 6345,
  "\u0644\u0645": 6346,
  "\u0648\u062d": 6347,
  "\u0917\u0930": 6348,
  "\u2581\u0a38\u0a3c\u0a3e\u0a2e\u0a32": 6349,
  "\u2581Pa": 6350,
  "\u2581\u0989\u09b2\u09cd\u09b2\u09bf\u0996\u09bf\u09a4": 6351,
  "\u0633\u0627": 6352,
  "\u2581affairs": 6353,
  "\u2581\u0915\u0930\u0915\u0947": 6354,
  "\u2581idea": 6355,
  "\u2581\u0917\u094b": 6356,
  "\u0ab2\u0acb": 6357,
  "\u2581conversation": 6358,
  "\u094d\u0930\u093f\u0936\u094d": 6359,
  "\u2581charity": 6360,
  "\u2581gor": 6361,
  "\u2581relative": 6362,
  "\u2581\u091c\u093e\u0924\u0940": 6363,
  "\u0902\u091a\u0947": 6364,
  "\u092e\u093f": 6365,
  "\u2581beneath": 6366,
  "\u2581\u0b2c\u0b28\u0b4d\u0b26": 6367,
  "\u2581Wherefore": 6368,
  "\u2581\u062f\u06cc\u06a9\u06be\u0648": 6369,
  "\u2581goodness": 6370,
  "ska": 6371,
  "\u2581\u0637\u0644\u0628": 6372,
  "\u2581\u092c\u0924\u093e": 6373,
  "\u2581\u0936\u0915\u0924\u093e\u0924": 6374,
  "\u2581\u0aae\u0abe": 6375,
  "Copy": 6376,
  "\u2581\u0dc0\u0dd4\u0dab\u0dda": 6377,
  "this": 6378,
  "\u2581addition": 6379,
  "\u2581\u0935\u093f\u0936\u094d\u0935\u093e\u0938": 6380,
  "\u2581\u067e\u06c1\u0646\u0686": 6381,
  "\u2581\u0938\u094d": 6382,
  "\u2581\u09ae\u09a7": 6383,
  "\u2581\u0a15\u0a41": 6384,
  "\u093f\u0928": 6385,
  "\u2581\u0d9a\u0dbb\u0d9c\u0db1\u0dca\u0db1": 6386,
  "\u2581mate": 6387,
  "\u0917\u0947": 6388,
  "\u2581double": 6389,
  "\u2581Language": 6390,
  "\u2581\u092a\u0941\u0938\u094d\u0924\u093f\u0915\u093e": 6391,
  "\u2581\u062f\u0631": 6392,
  "\u2581\u0926\u0941\u0903\u0916": 6393,
  "\u2581\u092e\u093f\u0932\u093e": 6394,
  "\u2581picture": 6395,
  "\u2581sounds": 6396,
  "\u2581\u090f\u0916\u093e\u0926\u094d\u092f\u093e": 6397,
  "\u2581\u0a39\u0a4b\u0a35\u0a47\u0a17\u0a3e": 6398,
  "\u2581Copying": 6399,
  "\u2581\u0622\u0626\u064a": 6400,
  "\u2581\u092a\u093e\u0932\u0928": 6401,
  "im": 6402,
  "\u2581\u092e\u0927\u094d\u092f\u0947": 6403,
  "\u0936\u0940\u0932": 6404,
  "\u2581\u09aa\u09c1\u09a8\u09b0\u09be\u09af\u09bc": 6405,
  "\u2581\u09ec": 6406,
  "\u2581\u0930\u0939\u0940": 6407,
  "\u2581\u0ab6\u0ab0\u0ac2": 6408,
  "\u2581perish": 6409,
  "\u2581\u0986\u09ae\u09c7\u09f0\u09bf\u0995\u09be": 6410,
  "\u098f\u09b0": 6411,
  "\u2581keeping": 6412,
  "\u2581\u092a\u0942\u0930\u094d\u0935": 6413,
  "\u2581\u092e\u0947\u091f\u093e\u092c\u0942": 6414,
  "\u2581Two": 6415,
  "\u2581\u0aa8\u0a95\u0ab2": 6416,
  "\u2581throw": 6417,
  "\u0928\u093e\u0907": 6418,
  "\u2581likewise": 6419,
  "\u2581bookmarks": 6420,
  "\u2581attribute": 6421,
  "\u2581\u0a35\u0a71\u0a32": 6422,
  "\u2581\u0926\u093e": 6423,
  "\u2581\u09ac\u09bf\u09b6\u09cd\u09ac\u09be\u09b8": 6424,
  "knowing": 6425,
  "\u2581\u0918\u091f\u0928\u093e": 6426,
  "\u2581\u062a\u06cc\u0627\u0631": 6427,
  "\u2581\u0633\u06af\u06be\u0646\u062f\u0627": 6428,
  "ngo": 6429,
  "\u2581\u092e\u093e\u0928\u0935": 6430,
  "\u2581challenge": 6431,
  "ling": 6432,
  "\u0679\u06cc": 6433,
  "\u2581\u0ae9": 6434,
  "are": 6435,
  "\u2581teachings": 6436,
  "\u2581Email": 6437,
  "\u2581\u09ac\u09be\u0987\u09ac\u09c7\u09b2": 6438,
  "\u2581Eve": 6439,
  "\u2581\u0628\u0631": 6440,
  "\u0aa4\u0ac1\u0a82": 6441,
  "\u2581\u0648\u062d\u06cc": 6442,
  "\u062c\u064a\u0633\u064a\u0646": 6443,
  "\u0abf\u0aaf\u0abe": 6444,
  "\u2581Judas": 6445,
  "\u092b\u093e": 6446,
  "\u2581\u0634\u0627\u0645\u0644": 6447,
  "\u0b2c\u0b3e": 6448,
  "\u2581\u062a\u06be\u06cc\u06ba": 6449,
  "\u2581Each": 6450,
  "\u2581\u0932\u0939\u093e\u0928": 6451,
  "\u2581nature": 6452,
  "\u2581\u0642\u062f\u0631\u062a": 6453,
  "\u2581\u0a16\u0a4b\u0a1c": 6454,
  "\u2581prepare": 6455,
  "\u2581fielo": 6456,
  "\u2581ginduria": 6457,
  "\u2581glaso": 6458,
  "Be": 6459,
  "\u2581exalted": 6460,
  "\u0638\u0627\u0644\u0645\u0648\u06ba": 6461,
  "\u2581unclean": 6462,
  "\u2581release": 6463,
  "\u2581Subject": 6464,
  "\u2581individual": 6465,
  "\u2581\u0631\u06c1\u062a\u06d2": 6466,
  "\u0931\u094d\u092f\u093e": 6467,
  "\u0a28\u0a3e\u0a02": 6468,
  "\u2581\u0db6\u0dd0": 6469,
  "\u2581\u0a1c\u0a3c\u0a30\u0a42\u0a30\u0a40": 6470,
  "\u2581\u0909\u0924\u094d\u0924\u092e": 6471,
  "\u2581Okay": 6472,
  "\u2581trials": 6473,
  "\u2581\u091a\u093e\u0939\u0924\u093e": 6474,
  "\u2581\u092c\u093e\u0939\u0947\u0930": 6475,
  "\u2581Black": 6476,
  "\u2581\u0b18\u0b1f\u0b23\u0b3e": 6477,
  "their": 6478,
  "\u0924\u0930": 6479,
  "\u2581\u0633\u062c\u062f\u0648": 6480,
  "\u0939\u0930": 6481,
  "\u2581merciful": 6482,
  "\u2581Love": 6483,
  "\u2581hasten": 6484,
  "\u2581\u0915\u093e\u0933": 6485,
  "\u2581sacrifices": 6486,
  "\u2581\u09a6\u09b2": 6487,
  "\u0db8\u0dd2\u0db1\u0dca": 6488,
  "\u2581treat": 6489,
  "\u2581\u067d": 6490,
  "\u2581fish": 6491,
  "\u2581%2": 6492,
  "\u2581beside": 6493,
  "\u2581bow": 6494,
  "\u2581\u092f\u0941": 6495,
  "\u2581\u0a9c\u0abe\u0aa3\u0a95\u0abe\u0ab0\u0ac0": 6496,
  "\u0a71\u0a24": 6497,
  "\u2581persons": 6498,
  "\u2581\u092f\u093e\u091a\u0940": 6499,
  "ab": 6500,
  "\u0b0f": 6501,
  "\u2581oil": 6502,
  "\u2581Peace": 6503,
  "\u2581believes": 6504,
  "\u0b32\u0b3f": 6505,
  "\u2581\u0d9a\u0dd0": 6506,
  "\u2581Bar": 6507,
  "\u2581\u0634\u0627\u06be\u062f": 6508,
  "\u2581fair": 6509,
  "\u0a32\u0a4b": 6510,
  "\u2581100": 6511,
  "\u2581White": 6512,
  "\u2581lake": 6513,
  "\u2581elder": 6514,
  "\u2581\u0648\u06bb\u064a": 6515,
  "\u09b0\u09c7": 6516,
  "\u2581numbers": 6517,
  "\u2581declared": 6518,
  "\u067e\u0631": 6519,
  "\u2581struck": 6520,
  "\u062a\u06cc\u0631\u06cc": 6521,
  "\u2581business": 6522,
  "\u2581\u0aae\u0ac2\u0ab3\u0aad\u0ac2\u0aa4": 6523,
  "\u0a38\u0a3e\u0a32\u0a3e\u0a02": 6524,
  "\u2581\u0d9a\u0dbb\u0dbd\u0dcf": 6525,
  "\u2581\u0aa4\u0aae\u0abe\u0ab0\u0ac0": 6526,
  "\u2581\u0ab5\u0abf\u0ab7\u0ac7": 6527,
  "Me": 6528,
  "\u0644\u06d2": 6529,
  "\u2581\u092a\u0930\u092e\u0947\u0936\u094d\u0935\u0930\u093e\u0928\u0947": 6530,
  "\u2581learning": 6531,
  "\u2581talking": 6532,
  "\u2581\u0906\u090f": 6533,
  "one": 6534,
  "\u2581faithless": 6535,
  "\u099a\u09bf": 6536,
  "\u09a5\u09be": 6537,
  "\u2581Burning": 6538,
  "\u2581\u0648\u0627\u06be\u064a": 6539,
  "\u2581training": 6540,
  "\u2581trin": 6541,
  "\u2581\u0906\u092f\u093e\u0924": 6542,
  "\u2581\u0938\u092e\u0942\u0939": 6543,
  "\u2581\u09a5\u09be\u0995\u09c7": 6544,
  "\u2581\u09ae\u09c1": 6545,
  "\u2581\u0928\u092f\u093e": 6546,
  "\u2581\u0938\u094d\u0924\u0930": 6547,
  "\u2581tumendar": 6548,
  "\u099b\u09c7\u09a8": 6549,
  "\u2581\u092f\u093e\u0902\u091a\u094d\u092f\u093e": 6550,
  "hi": 6551,
  "\u2581doth": 6552,
  "\u2581\u0916\u093e\u0924\u093e": 6553,
  "\u2581\u092a\u094d\u0930\u092e\u093e\u0923\u092a\u0924\u094d\u0930": 6554,
  "\u2581lack": 6555,
  "\u2581note": 6556,
  "\u2581worldly": 6557,
  "\u0dc0\u0dd4": 6558,
  "\u2581\u0a95\u0a88": 6559,
  "\u2581browser": 6560,
  "\u2581\u0a38\u0a39\u0a40": 6561,
  "\u2581charge": 6562,
  "\u2581\u068a": 6563,
  "\u2581\u0db8\u0dd0": 6564,
  "\u2581\u0644\u06c1": 6565,
  "\u2581\u0a38\u0a3e": 6566,
  "\u2581\u0938\u0901\u0917": 6567,
  "ance": 6568,
  "\u2581\u0680\u0627\u0626\u064a\u0646\u062f": 6569,
  "\u2581\u0a24\u0a4c\u0a30": 6570,
  "\u09a4\u09cd\u09f0": 6571,
  "\u2581ordained": 6572,
  "\u2581Later": 6573,
  "\u2581Task": 6574,
  "\u09a4\u09be\u09b0": 6575,
  "\u0b32\u0b3e": 6576,
  "\u2581\u0633\u0686\u06d2": 6577,
  "\u2581\u0915\u092e\u0940": 6578,
  "\u2581opening": 6579,
  "\u2581\u092a\u091b\u093f\u0932\u093e": 6580,
  "\u2581related": 6581,
  "\u2581\u0995\u09c7\u0989": 6582,
  "\u2581\u067e\u0627\u06aa\u0627\u0626\u064a": 6583,
  "\u0648\u064a\u062c\u06be\u0648": 6584,
  "\u2581Vi": 6585,
  "\u09ae\u09c7": 6586,
  "\u2581restore": 6587,
  "\u2581\u091c\u093e\u090a": 6588,
  "\u2581\u0935\u0947\u092c": 6589,
  "\u2581\u0985\u09a7\u09bf\u0995": 6590,
  "\u09af\u09bc\u09c7\u09b0": 6591,
  "\u2581\u062e\u0644\u0627\u0641": 6592,
  "\u2581Watch": 6593,
  "\u0941\u0930": 6594,
  "\u2581management": 6595,
  "\u2581\u0627\u0628\u0631\u0627\u06c1\u06cc\u0645": 6596,
  "\u2581\u06b3\u0648\u067a": 6597,
  "\u0aa0": 6598,
  "\u2581\u092c\u0928\u094d\u0928": 6599,
  "\u2581manrho": 6600,
  "\u2581meklia": 6601,
  "\u2581vitsa": 6602,
  "\u0650\u200c": 6603,
  "\u09ad\u09bf": 6604,
  "\u2581\u0906\u0917\u0947": 6605,
  "\u092c\u0930\u094b\u092c\u0930": 6606,
  "\u2581worse": 6607,
  "\u2581\u0daf\u0db1\u0dca\u0db1\u0dc0\u0dcf": 6608,
  "\u2581\u0688\u0631\u0648": 6609,
  "\u2581\u0ab6\u0a95\u0aa4\u0abe": 6610,
  "\u2581Application": 6611,
  "\u2581flag": 6612,
  "\u2581\u0641\u0627\u0626\u062f\u06c1": 6613,
  "\u2581\u0b05\u0b2c\u0b48\u0b27": 6614,
  "\u2581\u0926\u0930": 6615,
  "\u0aa4\u0abf": 6616,
  "\u2581\u0910\u0938\u0940": 6617,
  "\u2581\u06a9\u0648\u0634\u0634": 6618,
  "\u2581\u0646\u067f": 6619,
  "kh": 6620,
  "\u2581\u0a86\u0aaa\u0aa3": 6621,
  "\u2581\u0634\u0631\u0648\u0639": 6622,
  "\u2581\u0935\u093e\u091a\u093e": 6623,
  "\u2581\u0aa8\u0ab5\u0ac0": 6624,
  "\u0dd1": 6625,
  "\u2581harmony": 6626,
  "\u0acd\u0aaf\u0ac1": 6627,
  "\u2581HTTP": 6628,
  "\u2581\u0915\u0908": 6629,
  "\u0629": 6630,
  "\u2581\u0ab8\u0a82\u0a96\u0acd\u0aaf\u0abe": 6631,
  "\u2581worldwide": 6632,
  "\u2581\u0935\u0930\u094d\u0917": 6633,
  "\u2581House": 6634,
  "ud": 6635,
  "\u2581\u0a32\u0a71\u0a17": 6636,
  "\u2581\u09b7": 6637,
  "\u2581\u0d91\u0dba\u0dcf\u0da7": 6638,
  "uk": 6639,
  "\u2581frame": 6640,
  "\u2581\u092e\u093f": 6641,
  "\u09b0\u09c2\u09aa\u09c7": 6642,
  "ile": 6643,
  "\u0921\u094d\u092f\u093e": 6644,
  "\u2581\u09ab\u09c7\u09b2\u09be": 6645,
  "\u2581\u0915\u0930\u0923\u093e\u0931\u094d": 6646,
  "\u2581\u0a1c\u0a35\u0a3e\u0a2c": 6647,
  "\u0641\u062a": 6648,
  "\u2581arose": 6649,
  "\u09ac\u09b2\u09c8": 6650,
  "\u091f\u0947": 6651,
  "\u2581\u0906\u0926\u0930": 6652,
  "\u258116:": 6653,
  "\u2581\u092f\u0939\u0942\u0926\u093e": 6654,
  "\u2581\u0b2a\u0b41\u0b38\u0b4d\u0b24\u0b3f\u0b15\u0b3e": 6655,
  "\u2581arrived": 6656,
  "\u2581\u0646\u06cc\u0686\u06d2": 6657,
  "\u2581\u06be\u0648\u0627\u0633\u0648\u0646": 6658,
  "\u2581h": 6659,
  "\u2581abundance": 6660,
  "\u2581steps": 6661,
  "\u0928\u094d\u0926": 6662,
  "\u0a9f\u0abe": 6663,
  "\u2581Almighty": 6664,
  "\u2581Certainly": 6665,
  "\u2581regularly": 6666,
  "\u2581\u092c\u093e\u0902\u0927\u0935": 6667,
  "\u2581naught": 6668,
  "\u2581\u092a\u0941\u0930\u0941\u0937": 6669,
  "\u093f\u0936": 6670,
  "\u2581\u09a8\u09bf\u09b0\u09cd\u09ae\u09be\u09a3": 6671,
  "\u2581\u0926\u0947\u0935\u093e\u091a\u0940": 6672,
  "\u2581\u0936\u093f": 6673,
  "\u2581\u0938\u093e\u0915\u094d\u0937\u0940\u0926\u093e\u0930": 6674,
  "\u0a2e\u0a3e": 6675,
  "\u2581\u0985\u09a8\u09c1": 6676,
  "\u2581\u0b38\u0b2e\u0b4d\u0b2a\u0b3e\u0b26\u0b28": 6677,
  "\u0935\u093e\u0930": 6678,
  "zh": 6679,
  "\u2581\u0633\u062a": 6680,
  "\u2581Log": 6681,
  "\u2581\u0635\u0627\u0644\u062d": 6682,
  "\u2581\u0930\u0901\u0917": 6683,
  "\u2581\u09aa\u09cd\u09b0\u09be\u09aa\u09cd\u09a4": 6684,
  "\u2581inherit": 6685,
  "\u2581Author": 6686,
  "\u2581\u0639\u0648\u0631\u062a": 6687,
  "\u2581\u0926\u0947\u0935\u093e\u0932\u093e": 6688,
  "\u2581\u0648\u0683\u0648": 6689,
  "\u2581Soon": 6690,
  "\u2581\u0920\u0940\u0915": 6691,
  "\u2581develop": 6692,
  "rs": 6693,
  "\u0902\u0938": 6694,
  "\u2581\u0631\u06be\u0646\u062f\u0627": 6695,
  "\u0646\u0634\u0627\u0646\u064a\u0646": 6696,
  "\u2581\u091c\u094b\u0921\u093c\u0942": 6697,
  "\u2581\u0b2e\u0b42\u0b32\u0b4d\u0b2f": 6698,
  "\u2581\u0da2\u0dd3\u0dc0\u0dad\u0dca": 6699,
  "-8": 6700,
  "ize": 6701,
  "\u2581\u0b16\u0b4b\u0b32\u0b3f": 6702,
  "\u0a23\u0a3e": 6703,
  "\u2581resurrected": 6704,
  "\u2581\u09aa\u09be\u099b\u09f1\u09be\u09f0\u09cd\u09a1": 6705,
  "\u2581\u0a38\u0a41\u0a23": 6706,
  "\u2581clay": 6707,
  "\u2581\u0998\u099f\u09a8\u09be": 6708,
  "\u2581feed": 6709,
  "\u2581\u09aa\u09b0\u09c0\u0995\u09cd\u09b7\u09be": 6710,
  "\u2581magic": 6711,
  "\u2581trobula": 6712,
  "\u2581\u0684\u0627\u06bb\u0648": 6713,
  "\u0902\u0926": 6714,
[...]
